#include <stdint.h>
#include "mlp_model.h"

const unsigned char mlp_model_tflite[] = {
  0x20, 0x00, 0x00, 0x00, 0x54, 0x46, 0x4C, 0x33, 0x00, 0x00, 0x00, 0x00, 
  0x14, 0x00, 0x20, 0x00, 0x1C, 0x00, 0x18, 0x00, 0x14, 0x00, 0x10, 0x00, 
  0x0C, 0x00, 0x00, 0x00, 0x08, 0x00, 0x04, 0x00, 0x14, 0x00, 0x00, 0x00, 
  0x1C, 0x00, 0x00, 0x00, 0x90, 0x00, 0x00, 0x00, 0xE8, 0x00, 0x00, 0x00, 
  0xCC, 0x15, 0x00, 0x00, 0xDC, 0x15, 0x00, 0x00, 0xD8, 0x1C, 0x00, 0x00, 
  0x03, 0x00, 0x00, 0x00, 0x01, 0x00, 0x00, 0x00, 0x10, 0x00, 0x00, 0x00, 
  0x00, 0x00, 0x0A, 0x00, 0x10, 0x00, 0x0C, 0x00, 0x08, 0x00, 0x04, 0x00, 
  0x0A, 0x00, 0x00, 0x00, 0x0C, 0x00, 0x00, 0x00, 0x1C, 0x00, 0x00, 0x00, 
  0x38, 0x00, 0x00, 0x00, 0x0F, 0x00, 0x00, 0x00, 0x73, 0x65, 0x72, 0x76, 
  0x69, 0x6E, 0x67, 0x5F, 0x64, 0x65, 0x66, 0x61, 0x75, 0x6C, 0x74, 0x00, 
  0x01, 0x00, 0x00, 0x00, 0x04, 0x00, 0x00, 0x00, 0x98, 0xFF, 0xFF, 0xFF, 
  0x0A, 0x00, 0x00, 0x00, 0x04, 0x00, 0x00, 0x00, 0x06, 0x00, 0x00, 0x00, 
  0x6C, 0x6F, 0x67, 0x69, 0x74, 0x73, 0x00, 0x00, 0x01, 0x00, 0x00, 0x00, 
  0x04, 0x00, 0x00, 0x00, 0x16, 0xEA, 0xFF, 0xFF, 0x04, 0x00, 0x00, 0x00, 
  0x0A, 0x00, 0x00, 0x00, 0x72, 0x73, 0x73, 0x69, 0x5F, 0x69, 0x6E, 0x70, 
  0x75, 0x74, 0x00, 0x00, 0x02, 0x00, 0x00, 0x00, 0x34, 0x00, 0x00, 0x00, 
  0x04, 0x00, 0x00, 0x00, 0xDC, 0xFF, 0xFF, 0xFF, 0x0D, 0x00, 0x00, 0x00, 
  0x04, 0x00, 0x00, 0x00, 0x13, 0x00, 0x00, 0x00, 0x43, 0x4F, 0x4E, 0x56, 
  0x45, 0x52, 0x53, 0x49, 0x4F, 0x4E, 0x5F, 0x4D, 0x45, 0x54, 0x41, 0x44, 
  0x41, 0x54, 0x41, 0x00, 0x08, 0x00, 0x0C, 0x00, 0x08, 0x00, 0x04, 0x00, 
  0x08, 0x00, 0x00, 0x00, 0x0C, 0x00, 0x00, 0x00, 0x04, 0x00, 0x00, 0x00, 
  0x13, 0x00, 0x00, 0x00, 0x6D, 0x69, 0x6E, 0x5F, 0x72, 0x75, 0x6E, 0x74, 
  0x69, 0x6D, 0x65, 0x5F, 0x76, 0x65, 0x72, 0x73, 0x69, 0x6F, 0x6E, 0x00, 
  0x0E, 0x00, 0x00, 0x00, 0xE0, 0x14, 0x00, 0x00, 0xD8, 0x14, 0x00, 0x00, 
  0x9C, 0x14, 0x00, 0x00, 0x2C, 0x13, 0x00, 0x00, 0x9C, 0x12, 0x00, 0x00, 
  0x8C, 0x0A, 0x00, 0x00, 0x7C, 0x09, 0x00, 0x00, 0xAC, 0x00, 0x00, 0x00, 
  0xA4, 0x00, 0x00, 0x00, 0x9C, 0x00, 0x00, 0x00, 0x94, 0x00, 0x00, 0x00, 
  0x8C, 0x00, 0x00, 0x00, 0x6C, 0x00, 0x00, 0x00, 0x04, 0x00, 0x00, 0x00, 
  0xC6, 0xEA, 0xFF, 0xFF, 0x04, 0x00, 0x00, 0x00, 0x58, 0x00, 0x00, 0x00, 
  0x0C, 0x00, 0x00, 0x00, 0x08, 0x00, 0x0E, 0x00, 0x08, 0x00, 0x04, 0x00, 
  0x08, 0x00, 0x00, 0x00, 0x10, 0x00, 0x00, 0x00, 0x28, 0x00, 0x00, 0x00, 
  0x00, 0x00, 0x06, 0x00, 0x08, 0x00, 0x04, 0x00, 0x06, 0x00, 0x00, 0x00, 
  0x04, 0x00, 0x00, 0x00, 0x01, 0x00, 0x00, 0x00, 0xEB, 0x03, 0x00, 0x00, 
  0x00, 0x00, 0x0A, 0x00, 0x10, 0x00, 0x0C, 0x00, 0x08, 0x00, 0x04, 0x00, 
  0x0A, 0x00, 0x00, 0x00, 0x02, 0x00, 0x00, 0x00, 0x02, 0x00, 0x00, 0x00, 
  0x04, 0x00, 0x00, 0x00, 0x06, 0x00, 0x00, 0x00, 0x32, 0x2E, 0x31, 0x33, 
  0x2E, 0x30, 0x00, 0x00, 0x2A, 0xEB, 0xFF, 0xFF, 0x04, 0x00, 0x00, 0x00, 
  0x10, 0x00, 0x00, 0x00, 0x31, 0x2E, 0x31, 0x34, 0x2E, 0x30, 0x00, 0x00, 
  0x00, 0x00, 0x00, 0x00, 0x00, 0x00, 0x00, 0x00, 0x14, 0xEB, 0xFF, 0xFF, 
  0x18, 0xEB, 0xFF, 0xFF, 0x1C, 0xEB, 0xFF, 0xFF, 0x20, 0xEB, 0xFF, 0xFF, 
  0x56, 0xEB, 0xFF, 0xFF, 0x04, 0x00, 0x00, 0x00, 0xC0, 0x08, 0x00, 0x00, 
  0x28, 0xE8, 0x02, 0xED, 0xFE, 0xF0, 0xF6, 0x30, 0x2A, 0xE3, 0x21, 0x10, 
  0x48, 0xD0, 0x34, 0x31, 0xFB, 0xF9, 0xF8, 0x0D, 0xE8, 0x11, 0x0E, 0xDE, 
  0xFC, 0xE0, 0xFB, 0xDC, 0xFB, 0xD0, 0xE8, 0x44, 0xFB, 0xDB, 0xDA, 0x09, 
  0x18, 0xE3, 0x0B, 0xD7, 0x1D, 0xFD, 0x06, 0x13, 0xEC, 0x0F, 0xFE, 0x38, 
  0x43, 0xE5, 0x2B, 0x2C, 0xDE, 0xD8, 0xDD, 0xE3, 0x20, 0xCA, 0xF1, 0x11, 
  0xCE, 0x0D, 0xCB, 0x19, 0xD8, 0x2E, 0xEA, 0x18, 0xDD, 0x14, 0xF5, 0xF1, 
  0x1C, 0x2A, 0x16, 0xE5, 0xF1, 0xF5, 0xFF, 0xE9, 0xE1, 0x0E, 0x0F, 0x14, 
  0x08, 0xE3, 0xFE, 0x23, 0x18, 0x03, 0x2D, 0x19, 0x14, 0xFC, 0xD6, 0x1E, 
  0xE8, 0x23, 0x17, 0x17, 0x2A, 0x11, 0xD9, 0xF4, 0xE4, 0x29, 0xF9, 0xEB, 
  0x21, 0x0C, 0xFD, 0xE3, 0x08, 0x22, 0xD8, 0x20, 0x24, 0x18, 0x11, 0x21, 
  0x23, 0x1D, 0x02, 0xF6, 0x0F, 0x04, 0x08, 0x01, 0xEF, 0x0D, 0x16, 0x26, 
  0xFF, 0xFF, 0x10, 0x16, 0x06, 0xF9, 0xE5, 0x04, 0xD2, 0x1D, 0x0E, 0xEF, 
  0xEC, 0xDB, 0x0E, 0x47, 0xCD, 0x26, 0x26, 0xF2, 0x01, 0xC7, 0xFA, 0xEB, 
  0x40, 0x22, 0xE2, 0xFD, 0xF4, 0xF1, 0xE0, 0x09, 0xCF, 0xF0, 0x34, 0x22, 
  0xDA, 0xFB, 0x1D, 0x19, 0xBC, 0x02, 0xE8, 0x02, 0x16, 0xFF, 0x00, 0xFB, 
  0xDE, 0x16, 0x1D, 0xE5, 0xD5, 0x1C, 0x46, 0xE7, 0x23, 0xC1, 0xD1, 0x34, 
  0x02, 0x46, 0xE5, 0x0A, 0x18, 0xF4, 0x22, 0x03, 0xE3, 0xC0, 0xB7, 0x2C, 
  0xC0, 0x12, 0x0E, 0xE0, 0x19, 0xF1, 0x3D, 0x1A, 0xFB, 0x18, 0x1C, 0xDB, 
  0xE7, 0xBF, 0xF9, 0x3A, 0x2B, 0x0D, 0xFD, 0xE9, 0xB5, 0xD4, 0xBF, 0x00, 
  0xE9, 0x2B, 0xE7, 0xEA, 0x1E, 0xE9, 0x2E, 0x2F, 0xDA, 0xCE, 0x05, 0xF1, 
  0xFC, 0xD1, 0x1E, 0xEE, 0x28, 0xCD, 0x23, 0xDA, 0x0E, 0xFD, 0x2C, 0x08, 
  0xE6, 0xED, 0x03, 0xFD, 0xFC, 0xB4, 0x14, 0xF0, 0x3C, 0xF6, 0x3E, 0x16, 
  0x09, 0xDB, 0xDC, 0x0E, 0xCC, 0xF9, 0xF4, 0xF1, 0x05, 0xC4, 0x1B, 0x18, 
  0x32, 0xC1, 0x17, 0xEE, 0x02, 0x20, 0x01, 0xE4, 0xD6, 0x2D, 0x17, 0xDE, 
  0x01, 0xDD, 0x11, 0xDB, 0xF6, 0xF6, 0x0A, 0xD2, 0xFC, 0x01, 0x0A, 0x1C, 
  0x15, 0x04, 0x1F, 0x19, 0xE5, 0xFE, 0x21, 0x29, 0x19, 0xE8, 0x27, 0x1D, 
  0xD5, 0x2A, 0x14, 0x16, 0xE7, 0x02, 0xEE, 0x04, 0xF7, 0xDE, 0xF0, 0xFD, 
  0xCE, 0xED, 0xCF, 0x35, 0xEB, 0xFD, 0x2E, 0x15, 0xFD, 0xDB, 0xEE, 0xF1, 
  0x3A, 0x1F, 0xF9, 0x2F, 0x05, 0xEB, 0x23, 0x00, 0xB2, 0xD8, 0xED, 0x23, 
  0xEB, 0x0D, 0xE3, 0x0B, 0x1F, 0xFB, 0xF5, 0x28, 0xE6, 0x15, 0x2C, 0xD4, 
  0xF5, 0x27, 0xC9, 0x40, 0xC1, 0xED, 0x15, 0xBA, 0x25, 0xD2, 0x02, 0xDB, 
  0xEC, 0x38, 0xF6, 0xFF, 0xF9, 0x03, 0x2B, 0xEC, 0xF0, 0xAB, 0x1C, 0xCF, 
  0x09, 0xF0, 0xD0, 0xDC, 0x08, 0x07, 0xF1, 0x08, 0x20, 0x06, 0xE9, 0xDC, 
  0x06, 0x7F, 0xE9, 0x36, 0x4E, 0xFB, 0x28, 0x08, 0x19, 0x2B, 0x25, 0xFB, 
  0x12, 0x43, 0xE1, 0xE0, 0x1C, 0xEA, 0xE0, 0xD5, 0xDA, 0x62, 0xCB, 0xF1, 
  0x1E, 0x1D, 0xD0, 0xEC, 0x23, 0xDB, 0x1D, 0x2A, 0xFD, 0xFD, 0xDE, 0x1C, 
  0xF6, 0x0F, 0x00, 0x0C, 0x32, 0xE6, 0x42, 0xE5, 0xE1, 0xD9, 0x11, 0x37, 
  0xC4, 0xBF, 0xDC, 0xD3, 0x28, 0xF0, 0xF3, 0x48, 0x1A, 0x02, 0x18, 0xF6, 
  0x16, 0xE9, 0xD0, 0xE4, 0x0D, 0x19, 0xB7, 0x15, 0xFA, 0x1D, 0x07, 0x1E, 
  0xFC, 0xBD, 0xE8, 0xF8, 0xC4, 0xE6, 0x1A, 0x2A, 0x0F, 0x4A, 0xDB, 0x0C, 
  0xF1, 0x0D, 0xE3, 0xB6, 0x08, 0x0D, 0xF0, 0x19, 0xFF, 0x32, 0x08, 0x07, 
  0x07, 0xBF, 0xD4, 0x11, 0x16, 0xF2, 0x14, 0x29, 0x20, 0x3D, 0xFE, 0x25, 
  0xDB, 0x27, 0x23, 0xD0, 0xD9, 0x18, 0xD9, 0xDB, 0xF0, 0xF5, 0xE7, 0xF9, 
  0xEC, 0xCD, 0x04, 0xC7, 0x15, 0x3D, 0x1A, 0xFE, 0x1D, 0x1B, 0xD6, 0x0A, 
  0xE7, 0x0B, 0x1B, 0xD6, 0xC1, 0x28, 0xB4, 0xC9, 0x30, 0xEE, 0xB3, 0x2D, 
  0x27, 0xBE, 0x3A, 0xEC, 0xF7, 0x11, 0x00, 0xE0, 0xD7, 0xE6, 0x30, 0x0B, 
  0x2B, 0x03, 0x1B, 0xBE, 0x0E, 0x10, 0x14, 0x0F, 0xEB, 0xED, 0x25, 0xEB, 
  0xF4, 0xE9, 0xE8, 0xC5, 0x1F, 0xF1, 0xEE, 0x54, 0xE6, 0xCF, 0xCA, 0x20, 
  0xF7, 0xC4, 0xF6, 0x01, 0x18, 0x08, 0x32, 0x26, 0xD4, 0xE3, 0x03, 0x30, 
  0xF7, 0xD2, 0xF4, 0xC0, 0x16, 0x13, 0x2F, 0xEA, 0x34, 0x19, 0x0E, 0x2B, 
  0xFC, 0x1B, 0xF9, 0xF4, 0x3E, 0xDF, 0x18, 0x3E, 0xD3, 0xBD, 0xD5, 0xEB, 
  0xCC, 0xE7, 0x1D, 0xE4, 0x05, 0xF2, 0x29, 0x1A, 0xEB, 0xFC, 0xE1, 0xDD, 
  0xCE, 0x04, 0x13, 0x01, 0xF8, 0x1E, 0x08, 0xD9, 0xFD, 0xFA, 0x1B, 0xF0, 
  0xC1, 0x38, 0x33, 0xBD, 0xE3, 0x05, 0xD0, 0x0A, 0x3C, 0xDA, 0x21, 0xE7, 
  0xFF, 0x2A, 0xDB, 0xFD, 0x17, 0x2C, 0xF6, 0x16, 0xF7, 0x32, 0xE1, 0xDA, 
  0xD9, 0x22, 0xD7, 0xE1, 0x02, 0xD8, 0xEF, 0x2D, 0xD9, 0x29, 0x20, 0xF2, 
  0x12, 0xFF, 0x24, 0xDE, 0xF2, 0x0A, 0x26, 0xD6, 0x0F, 0x04, 0x1F, 0x24, 
  0xF7, 0x2B, 0x0F, 0xE6, 0x1B, 0xD2, 0xE8, 0xE8, 0x2B, 0x04, 0x23, 0x1A, 
  0x27, 0xF4, 0x22, 0x24, 0xC9, 0xE4, 0xF8, 0xDC, 0xD9, 0x0C, 0x60, 0xDA, 
  0xE4, 0x30, 0x18, 0x24, 0x05, 0xF4, 0x10, 0x16, 0x17, 0x2D, 0x35, 0xFC, 
  0xEF, 0xFE, 0xD0, 0xBE, 0xE5, 0xFA, 0xD5, 0xD2, 0x0E, 0x1A, 0xED, 0x0C, 
  0x31, 0x01, 0x2E, 0x21, 0xE2, 0xF4, 0x19, 0x20, 0xEE, 0xF9, 0xDB, 0xE9, 
  0x05, 0x04, 0x09, 0x14, 0x04, 0xD7, 0xDF, 0xFA, 0xF6, 0x28, 0xF5, 0xE6, 
  0xEE, 0x12, 0x04, 0xF7, 0x24, 0xE2, 0x03, 0x1B, 0x17, 0x2B, 0xE5, 0x18, 
  0x26, 0x2A, 0x20, 0x1F, 0x07, 0xE5, 0x14, 0xEB, 0xE8, 0x3D, 0x26, 0xF0, 
  0xED, 0xF9, 0x18, 0xCE, 0xCF, 0x09, 0x45, 0xC9, 0x2C, 0x09, 0xF6, 0xE5, 
  0xE2, 0x22, 0xFD, 0x06, 0xF4, 0xEA, 0xF4, 0xC6, 0xFB, 0x58, 0xE0, 0xD7, 
  0x1E, 0xEF, 0x23, 0x30, 0xE4, 0x08, 0x12, 0xE5, 0xF6, 0xE9, 0x14, 0xE9, 
  0x05, 0xEB, 0x27, 0x1A, 0x29, 0xE6, 0x0D, 0x1F, 0x2C, 0x1B, 0x25, 0x03, 
  0x26, 0x16, 0xE2, 0x02, 0xDE, 0x05, 0xE3, 0x2C, 0xEE, 0xD9, 0xF9, 0xE8, 
  0x03, 0x08, 0xD9, 0xEF, 0x02, 0xF6, 0xFF, 0xFD, 0xF3, 0xD0, 0xD4, 0x1A, 
  0xDE, 0x3B, 0x07, 0xF7, 0xDD, 0x16, 0xD6, 0x11, 0x02, 0xFC, 0x25, 0xFB, 
  0x1E, 0x13, 0xE7, 0xEA, 0x25, 0xDE, 0x46, 0x28, 0xEE, 0x09, 0xDC, 0xE2, 
  0x04, 0xF5, 0xDC, 0x10, 0x0C, 0xF3, 0xF5, 0xED, 0x1A, 0xE1, 0xE3, 0xF5, 
  0x3A, 0xDE, 0xDA, 0x17, 0xD6, 0x27, 0x0C, 0x1F, 0xD0, 0xCB, 0x34, 0x20, 
  0xF9, 0xD2, 0x0F, 0x0F, 0xCC, 0x47, 0xA7, 0xD4, 0x14, 0x22, 0x0B, 0x06, 
  0xE6, 0x14, 0x19, 0xFF, 0x2A, 0xDF, 0x1C, 0xF3, 0xF5, 0x1F, 0xEF, 0xFB, 
  0x1F, 0xFC, 0xB9, 0xFA, 0xFE, 0x13, 0xF9, 0xED, 0xDB, 0x0E, 0xEF, 0xF5, 
  0xF4, 0xF3, 0xF3, 0x34, 0xC6, 0x5B, 0x19, 0xEA, 0xE7, 0xFA, 0x08, 0xCE, 
  0xD0, 0xF8, 0x35, 0x23, 0x00, 0xFD, 0xFB, 0xD6, 0x34, 0x56, 0xC8, 0x1F, 
  0xFE, 0x03, 0xE2, 0xE4, 0xE0, 0x15, 0x1A, 0x24, 0x0D, 0x42, 0xE6, 0xE5, 
  0xD2, 0xC6, 0xDF, 0x07, 0x13, 0x48, 0xF8, 0xE1, 0x01, 0xF6, 0x11, 0xF5, 
  0xE8, 0xE2, 0xD6, 0xE7, 0xCD, 0xE8, 0xD0, 0xBF, 0x1F, 0xF3, 0x2A, 0x32, 
  0xBB, 0x55, 0xE9, 0xE8, 0x24, 0x09, 0x32, 0xEE, 0x2B, 0x1C, 0x36, 0x27, 
  0xC4, 0x04, 0xF2, 0x15, 0xF2, 0x0C, 0xCC, 0xE5, 0xDE, 0xE8, 0xE4, 0x0D, 
  0x0F, 0xD6, 0xF7, 0x18, 0x18, 0x08, 0xFA, 0xF3, 0x06, 0x0A, 0x2C, 0xED, 
  0xF8, 0x08, 0x1B, 0x28, 0x06, 0x28, 0xEB, 0xF5, 0x1A, 0x27, 0x00, 0xEB, 
  0x25, 0x2D, 0x25, 0x25, 0x2A, 0xDC, 0xDE, 0x1B, 0x11, 0x1B, 0x0E, 0xFB, 
  0x2A, 0x26, 0x05, 0xE2, 0xE4, 0x13, 0xDB, 0xEE, 0xE6, 0xD9, 0x34, 0xDA, 
  0x4B, 0xEC, 0xDC, 0x1F, 0xDC, 0xFF, 0x04, 0x24, 0xE7, 0xEC, 0xE0, 0x1E, 
  0xFE, 0x46, 0x0F, 0xD2, 0xFA, 0x38, 0xF6, 0x20, 0xCC, 0x01, 0xF5, 0x17, 
  0xEC, 0xE9, 0xEB, 0xEC, 0x2E, 0xEB, 0x2F, 0xD1, 0x0D, 0xD9, 0xFF, 0xEA, 
  0x11, 0xE4, 0xDB, 0xEB, 0x21, 0xF4, 0x10, 0xE9, 0xF3, 0xD8, 0x17, 0x0D, 
  0xDD, 0xC8, 0x1E, 0xD7, 0xCE, 0x22, 0x13, 0xEB, 0x1A, 0x31, 0x1C, 0xBE, 
  0xC6, 0xFE, 0xF8, 0xDB, 0x18, 0xF1, 0xD6, 0xC4, 0x0B, 0xC9, 0xF3, 0x06, 
  0x09, 0x00, 0x3D, 0x29, 0x21, 0x0B, 0xF0, 0xEB, 0xD9, 0x0C, 0x04, 0xB8, 
  0xF4, 0x11, 0x20, 0x0F, 0x23, 0x09, 0x05, 0x00, 0xFB, 0xB4, 0x41, 0x09, 
  0xDE, 0xEC, 0xFB, 0xE3, 0x00, 0x20, 0xE6, 0x10, 0x25, 0xD1, 0xF3, 0xDB, 
  0x00, 0xCF, 0xF0, 0xE7, 0x23, 0x1B, 0xE2, 0x31, 0x0E, 0x20, 0x14, 0xF0, 
  0xDD, 0xE8, 0xF4, 0xEE, 0xCE, 0x0E, 0x1F, 0xF8, 0x14, 0xE2, 0x39, 0xC2, 
  0x15, 0x5B, 0xF5, 0xF6, 0x07, 0x1A, 0x2F, 0xC1, 0x34, 0xF4, 0x1A, 0xE3, 
  0x0F, 0x31, 0xCB, 0xCC, 0xF1, 0xD6, 0xFE, 0xE6, 0xF8, 0x3F, 0x07, 0x12, 
  0xCA, 0xE5, 0xE5, 0x33, 0x0A, 0xFE, 0xE2, 0xD0, 0x02, 0x0D, 0xF9, 0x29, 
  0x01, 0xE9, 0xEA, 0x1A, 0xF6, 0xD8, 0xF2, 0xE5, 0xF1, 0x1C, 0xDF, 0x10, 
  0xEA, 0xEE, 0x17, 0x21, 0x0C, 0x10, 0xFB, 0x17, 0x9A, 0x16, 0x06, 0xE0, 
  0x18, 0x2D, 0x30, 0xFB, 0x06, 0xD9, 0x01, 0x09, 0x14, 0xEB, 0xF5, 0x0B, 
  0xDA, 0x13, 0xEE, 0x28, 0x03, 0xFB, 0xFB, 0x0E, 0xD8, 0x07, 0xE8, 0x21, 
  0x15, 0xE3, 0x2C, 0xF1, 0xE2, 0xDC, 0x08, 0x28, 0x1B, 0x13, 0xFC, 0xDC, 
  0x20, 0xD9, 0xE8, 0xF1, 0x0A, 0xFC, 0x19, 0xD7, 0x24, 0xEE, 0xA7, 0xC2, 
  0x32, 0xCA, 0x11, 0x08, 0x1F, 0xD7, 0x1A, 0x24, 0x0D, 0xFA, 0x32, 0x0A, 
  0x11, 0x07, 0x1B, 0xD1, 0x24, 0x52, 0xC7, 0xD2, 0xD6, 0xE1, 0x11, 0x06, 
  0x20, 0xEB, 0x12, 0xD9, 0xF0, 0x0A, 0xE3, 0x09, 0xE0, 0x23, 0xE0, 0x0E, 
  0x14, 0xF7, 0x08, 0xE7, 0xF0, 0x19, 0x19, 0xE4, 0x06, 0x27, 0x11, 0x18, 
  0xE4, 0x1A, 0x07, 0x1F, 0xEB, 0xFF, 0x17, 0xFB, 0x0B, 0x14, 0xE2, 0xF3, 
  0x07, 0xF6, 0xE9, 0xF2, 0x3A, 0xEE, 0xD6, 0xD0, 0x1A, 0x17, 0xB5, 0x3F, 
  0xD9, 0xF5, 0x2F, 0xCD, 0x13, 0xDA, 0xDD, 0x00, 0x03, 0xD0, 0x01, 0x39, 
  0x29, 0x17, 0x03, 0xD1, 0x32, 0x08, 0xFF, 0x01, 0xC8, 0xE4, 0x1B, 0x16, 
  0x29, 0xE9, 0x01, 0xC7, 0xEB, 0x15, 0x06, 0x2B, 0xE1, 0x4C, 0xD5, 0xEB, 
  0x05, 0xDE, 0x4B, 0xE8, 0x07, 0x18, 0xD0, 0xEC, 0xD9, 0xEE, 0xE8, 0x04, 
  0x0C, 0x0F, 0x35, 0xE1, 0xEB, 0xDD, 0xFE, 0xF8, 0x21, 0xFA, 0x01, 0x23, 
  0x16, 0x1B, 0x20, 0xC6, 0x33, 0xF2, 0xDF, 0xFC, 0x0F, 0xCC, 0x15, 0x06, 
  0xE1, 0xEE, 0x02, 0xEB, 0xDE, 0xE7, 0x3D, 0xF8, 0xF1, 0xBE, 0xB2, 0x1B, 
  0x03, 0x48, 0xE3, 0xE8, 0x26, 0xF2, 0x05, 0xE5, 0xFC, 0x21, 0xDB, 0x0C, 
  0x51, 0xD8, 0xFA, 0x28, 0x16, 0x25, 0xE6, 0xF9, 0xD2, 0x06, 0xF4, 0x26, 
  0x01, 0xF8, 0x1E, 0x02, 0x00, 0xDF, 0xC4, 0x19, 0xE1, 0xCC, 0xD6, 0x14, 
  0xF1, 0xE6, 0xDB, 0x24, 0xE9, 0xFA, 0xF8, 0x09, 0xE4, 0x21, 0xF8, 0xD7, 
  0x09, 0x24, 0x05, 0xD9, 0x15, 0x31, 0x1C, 0x1C, 0x19, 0x0B, 0xE5, 0xEE, 
  0xD8, 0x38, 0xF4, 0xD1, 0x1C, 0x2C, 0xD6, 0xDB, 0xC3, 0x31, 0xDC, 0xE2, 
  0x37, 0xF0, 0xE6, 0xE1, 0x4E, 0x29, 0xF8, 0xE4, 0x0F, 0xE4, 0xBD, 0x13, 
  0x42, 0x25, 0xE8, 0xF8, 0xDD, 0x19, 0x1B, 0xE6, 0xC8, 0xD2, 0xE4, 0x19, 
  0xDB, 0x0F, 0xEB, 0xEB, 0x30, 0xE2, 0xD9, 0x26, 0xF7, 0x19, 0xEA, 0xB6, 
  0xF5, 0x28, 0xF9, 0xE5, 0xEE, 0xE5, 0x0A, 0xFD, 0x22, 0xC8, 0x3B, 0x19, 
  0xC5, 0xDC, 0xFE, 0xD2, 0xE0, 0x3A, 0xF0, 0x20, 0x1B, 0x0C, 0xDB, 0x02, 
  0xFE, 0x1F, 0xDD, 0xC3, 0x36, 0xFD, 0x1F, 0xF1, 0x32, 0xC6, 0x35, 0xF6, 
  0xE7, 0xD3, 0x0E, 0xEA, 0xEE, 0xD5, 0x0C, 0xE1, 0xB9, 0xFB, 0x0C, 0x1A, 
  0x25, 0x00, 0xCF, 0x0B, 0xEF, 0x0E, 0x00, 0xCD, 0xD6, 0x33, 0xE4, 0xEA, 
  0x04, 0x27, 0x24, 0xFB, 0x1B, 0x2C, 0xD4, 0x05, 0x37, 0x92, 0xE2, 0x00, 
  0xF8, 0xDB, 0x07, 0x1D, 0x0B, 0xEA, 0x20, 0xDD, 0xDA, 0xF6, 0xC9, 0xE7, 
  0x06, 0x30, 0x08, 0xDA, 0x1F, 0xE9, 0x25, 0xF7, 0x19, 0x03, 0xF6, 0xF1, 
  0xE0, 0x54, 0x0A, 0xE3, 0xD2, 0xFF, 0x22, 0xE3, 0xFA, 0x43, 0xE7, 0xD9, 
  0xD9, 0x07, 0x11, 0x0C, 0xDD, 0xE4, 0x0C, 0x08, 0xDE, 0x3F, 0x2C, 0xD3, 
  0xF9, 0xBB, 0x04, 0xF5, 0x01, 0x23, 0xB7, 0x1C, 0x04, 0x2A, 0xF0, 0xDF, 
  0xEE, 0x0D, 0xEE, 0x38, 0x05, 0xFD, 0xCD, 0xA8, 0xFC, 0x13, 0x00, 0x21, 
  0x25, 0xEC, 0x0B, 0xDE, 0xD7, 0x0F, 0xFC, 0xDE, 0x15, 0x16, 0x04, 0xE6, 
  0x28, 0xFC, 0xEB, 0xF4, 0x01, 0x47, 0xF8, 0xE5, 0xCC, 0xE6, 0x14, 0x0B, 
  0xDE, 0xD6, 0xB5, 0x34, 0x41, 0x16, 0xCD, 0xD6, 0xEB, 0x2B, 0x01, 0xF9, 
  0x18, 0x18, 0x2C, 0xD1, 0xFA, 0x05, 0xBE, 0x38, 0xE2, 0xDE, 0xDE, 0xC2, 
  0x05, 0x14, 0x1F, 0x0E, 0x4E, 0xF8, 0xCF, 0xFB, 0xF9, 0x2B, 0xEF, 0x32, 
  0xFA, 0xD8, 0xF0, 0x14, 0x17, 0xBB, 0xD3, 0xFF, 0x10, 0x0C, 0xEF, 0xD2, 
  0x17, 0x24, 0x08, 0xD9, 0x30, 0x4E, 0xDE, 0xED, 0x47, 0x0B, 0x03, 0xDD, 
  0xDE, 0x12, 0xC2, 0x32, 0xEE, 0xD9, 0xEF, 0xEA, 0xF1, 0xDB, 0xD4, 0x10, 
  0xBC, 0x32, 0xEE, 0x1C, 0x5A, 0xF6, 0x15, 0x1E, 0xD1, 0x19, 0xE3, 0x2E, 
  0x15, 0x0A, 0x09, 0xC9, 0xF7, 0xB7, 0xDE, 0xB7, 0xE0, 0xC8, 0x3B, 0x0B, 
  0xC8, 0x38, 0x22, 0x06, 0xFE, 0x03, 0xF9, 0x1E, 0x10, 0x13, 0x36, 0x1F, 
  0xCD, 0x35, 0x00, 0xDA, 0x09, 0xE4, 0xCB, 0xD3, 0xD6, 0x2D, 0x26, 0xF6, 
  0xEC, 0x14, 0x2C, 0xE0, 0x30, 0xE3, 0xD8, 0x19, 0xEE, 0x3A, 0x05, 0x17, 
  0x41, 0x0A, 0xCF, 0xDA, 0x1E, 0xE3, 0xDD, 0xF9, 0xD7, 0xF3, 0xAE, 0xFE, 
  0x21, 0x00, 0xE3, 0xE4, 0x23, 0x28, 0x1B, 0xE1, 0xD7, 0xED, 0x0A, 0x04, 
  0x02, 0xF6, 0xFF, 0xEF, 0x2A, 0x15, 0xFE, 0xDD, 0x0B, 0x04, 0x2C, 0x23, 
  0xDA, 0x2C, 0xF6, 0xF5, 0x24, 0x16, 0x29, 0x1C, 0xFC, 0x0F, 0xFA, 0xE2, 
  0x06, 0xD7, 0x28, 0xFC, 0x2A, 0x28, 0xEC, 0xD1, 0x04, 0x2B, 0x0D, 0xBA, 
  0x0B, 0xDD, 0xC2, 0x0C, 0x2C, 0xC2, 0xD9, 0xDD, 0x05, 0xDF, 0xF9, 0xD8, 
  0xEE, 0x29, 0x03, 0x0C, 0xE3, 0x1C, 0x43, 0x3C, 0x40, 0xFB, 0xE2, 0x12, 
  0x09, 0xC8, 0xFC, 0xFF, 0xFA, 0x02, 0xED, 0x1E, 0x19, 0xFD, 0x1F, 0xE7, 
  0xE1, 0x0F, 0x10, 0xEF, 0x20, 0x1E, 0x0C, 0x08, 0x28, 0xF9, 0xFC, 0x07, 
  0xEF, 0x1A, 0xF2, 0x17, 0xEC, 0x0F, 0x0B, 0xD6, 0xDE, 0xF7, 0x24, 0x1A, 
  0x15, 0x1C, 0x29, 0xE9, 0xDC, 0xFA, 0xDB, 0x0A, 0xFF, 0xD1, 0x59, 0xD7, 
  0x10, 0xEC, 0x17, 0xCC, 0x27, 0xFF, 0xCA, 0x56, 0xFE, 0x07, 0xF6, 0x12, 
  0xCF, 0xE5, 0x00, 0x1D, 0x39, 0xF6, 0x25, 0x32, 0xC0, 0x25, 0x2E, 0x13, 
  0xF4, 0xD8, 0xC3, 0xD2, 0xFD, 0x02, 0x1F, 0xED, 0x2B, 0x2C, 0xDE, 0xC5, 
  0xD6, 0xEA, 0x08, 0x43, 0x1A, 0x1C, 0x0A, 0xFB, 0x39, 0x0D, 0x09, 0x21, 
  0x01, 0x08, 0x0C, 0xEF, 0x0D, 0xCE, 0xE7, 0xEA, 0xF8, 0x04, 0x00, 0xF0, 
  0xD9, 0xC2, 0x1F, 0xD3, 0x19, 0x29, 0x06, 0xC6, 0xE0, 0x13, 0xD4, 0xF2, 
  0xE8, 0xD7, 0x2F, 0xFF, 0xEF, 0x0A, 0x42, 0x33, 0x22, 0xDB, 0xEF, 0xE7, 
  0x10, 0xDF, 0xD8, 0x04, 0xF4, 0x00, 0x20, 0x2F, 0x31, 0xB3, 0xE1, 0x09, 
  0x1C, 0x20, 0xEE, 0x1C, 0x1D, 0xB8, 0x0A, 0x0A, 0x14, 0x0C, 0xE1, 0xF7, 
  0xE3, 0xD4, 0x0A, 0x03, 0x05, 0xED, 0x19, 0xD8, 0x25, 0x04, 0xEF, 0x1C, 
  0x03, 0x17, 0xD3, 0xE7, 0xDA, 0x1F, 0xF6, 0x35, 0x29, 0x0E, 0xD6, 0x1E, 
  0xED, 0xEE, 0xD9, 0x01, 0x17, 0x22, 0x29, 0xF7, 0x04, 0x12, 0x04, 0x26, 
  0x1F, 0xFE, 0x16, 0xFE, 0x0A, 0xF0, 0x1F, 0x2C, 0x03, 0x2B, 0x16, 0x15, 
  0x06, 0xF2, 0x19, 0xDF, 0x2C, 0x0F, 0x0E, 0x18, 0x08, 0xEB, 0xF8, 0x24, 
  0x11, 0x32, 0xF2, 0xD7, 0x0A, 0x04, 0x22, 0x2F, 0x13, 0x01, 0x0C, 0xF2, 
  0x19, 0xE7, 0x03, 0xE0, 0x34, 0x1F, 0xE1, 0xF1, 0xEA, 0x0B, 0xDA, 0xC6, 
  0xCB, 0x9B, 0x32, 0x2D, 0xD2, 0x1F, 0xE9, 0xF5, 0xFC, 0x0A, 0xE1, 0xDB, 
  0x23, 0x0A, 0x2C, 0xD2, 0x3C, 0xDD, 0x0A, 0xE0, 0xD3, 0xE6, 0x20, 0x18, 
  0xE7, 0x3F, 0xBE, 0xE8, 0xF0, 0xEE, 0x03, 0xEB, 0x17, 0xEC, 0x2A, 0xD9, 
  0x12, 0x37, 0xC9, 0x43, 0x41, 0xC5, 0xFE, 0x0E, 0x22, 0xF4, 0xFF, 0xFF, 
  0x04, 0x00, 0x00, 0x00, 0x00, 0x01, 0x00, 0x00, 0xAF, 0x03, 0x00, 0x00, 
  0x47, 0x01, 0x00, 0x00, 0xC6, 0xFE, 0xFF, 0xFF, 0x00, 0x00, 0x00, 0x00, 
  0x84, 0x02, 0x00, 0x00, 0xC7, 0x01, 0x00, 0x00, 0x27, 0x02, 0x00, 0x00, 
  0x85, 0x01, 0x00, 0x00, 0x00, 0x00, 0x00, 0x00, 0x99, 0xFC, 0xFF, 0xFF, 
  0xC7, 0xFE, 0xFF, 0xFF, 0x34, 0x06, 0x00, 0x00, 0x93, 0x03, 0x00, 0x00, 
  0x78, 0x00, 0x00, 0x00, 0x12, 0x00, 0x00, 0x00, 0xCA, 0x02, 0x00, 0x00, 
  0x02, 0xFE, 0xFF, 0xFF, 0x34, 0x00, 0x00, 0x00, 0x33, 0xFD, 0xFF, 0xFF, 
  0x00, 0x00, 0x00, 0x00, 0xBC, 0x04, 0x00, 0x00, 0x23, 0xFF, 0xFF, 0xFF, 
  0xBD, 0xFF, 0xFF, 0xFF, 0x89, 0xFD, 0xFF, 0xFF, 0x15, 0x01, 0x00, 0x00, 
  0x43, 0xFF, 0xFF, 0xFF, 0x95, 0xFB, 0xFF, 0xFF, 0x8A, 0x06, 0x00, 0x00, 
  0x92, 0x03, 0x00, 0x00, 0x00, 0x00, 0x00, 0x00, 0x5A, 0x00, 0x00, 0x00, 
  0xF2, 0xFF, 0xFF, 0xFF, 0x81, 0xFD, 0xFF, 0xFF, 0xAD, 0xFC, 0xFF, 0xFF, 
  0xD3, 0xFF, 0xFF, 0xFF, 0x8D, 0xFE, 0xFF, 0xFF, 0xFA, 0xFD, 0xFF, 0xFF, 
  0xE1, 0xFC, 0xFF, 0xFF, 0x00, 0x00, 0x00, 0x00, 0x97, 0xFF, 0xFF, 0xFF, 
  0xA0, 0xFF, 0xFF, 0xFF, 0xED, 0xFC, 0xFF, 0xFF, 0x8C, 0xFA, 0xFF, 0xFF, 
  0x97, 0xFC, 0xFF, 0xFF, 0xB8, 0xFE, 0xFF, 0xFF, 0xA1, 0x02, 0x00, 0x00, 
  0xF6, 0xFC, 0xFF, 0xFF, 0xB7, 0x03, 0x00, 0x00, 0xE4, 0x00, 0x00, 0x00, 
  0xA4, 0x01, 0x00, 0x00, 0x17, 0x04, 0x00, 0x00, 0x08, 0xFF, 0xFF, 0xFF, 
  0x36, 0x01, 0x00, 0x00, 0xF9, 0x06, 0x00, 0x00, 0x00, 0x00, 0x00, 0x00, 
  0x64, 0xFC, 0xFF, 0xFF, 0x00, 0x00, 0x00, 0x00, 0x54, 0xFE, 0xFF, 0xFF, 
  0xB0, 0x00, 0x00, 0x00, 0x17, 0x00, 0x00, 0x00, 0x06, 0x01, 0x00, 0x00, 
  0x00, 0x00, 0x00, 0x00, 0x5D, 0x02, 0x00, 0x00, 0x1F, 0xFE, 0xFF, 0xFF, 
  0x2E, 0xF5, 0xFF, 0xFF, 0x04, 0x00, 0x00, 0x00, 0x00, 0x08, 0x00, 0x00, 
  0x50, 0x48, 0x06, 0x0F, 0xB3, 0xD8, 0x02, 0xB7, 0x2C, 0x2E, 0x05, 0x32, 
  0x06, 0x08, 0x06, 0x22, 0xF7, 0x20, 0x33, 0xFC, 0xBF, 0x07, 0x00, 0x01, 
  0x12, 0x00, 0xE2, 0x12, 0xFB, 0xED, 0xD6, 0x06, 0xCB, 0x35, 0x08, 0xFB, 
  0xE3, 0xB1, 0xDC, 0x1C, 0xCB, 0xC0, 0xFE, 0x36, 0x4A, 0xF1, 0x03, 0x21, 
  0xF6, 0x02, 0xD0, 0x16, 0xE6, 0x27, 0xF6, 0x18, 0xDD, 0x18, 0x04, 0xCB, 
  0x34, 0x08, 0x25, 0xD0, 0xFC, 0x1B, 0x0E, 0xF0, 0xEC, 0xEE, 0x11, 0xE7, 
  0xDF, 0xEF, 0xEA, 0xF6, 0x15, 0xDE, 0xEE, 0xF7, 0xF7, 0xDC, 0x22, 0x07, 
  0xCF, 0xDB, 0xE9, 0xF7, 0xE9, 0xEE, 0xFA, 0xD3, 0xD8, 0x07, 0xD4, 0xE5, 
  0x0D, 0xE8, 0x02, 0x17, 0xF8, 0xE9, 0xEC, 0xE7, 0xE0, 0x2C, 0xD7, 0xDA, 
  0xF6, 0x09, 0x08, 0xF3, 0xED, 0x0F, 0xF5, 0xEB, 0xE7, 0xE1, 0x08, 0x26, 
  0xF0, 0xEF, 0xF9, 0x11, 0xFF, 0x21, 0x27, 0x0E, 0x11, 0xE0, 0x04, 0x0E, 
  0xED, 0xF1, 0xE5, 0xDA, 0x03, 0xE1, 0xEB, 0xDE, 0xE4, 0xE2, 0xDF, 0xD0, 
  0xCE, 0xE8, 0xFE, 0xE9, 0xD3, 0xFF, 0xF5, 0x23, 0x0D, 0xDC, 0xD2, 0xD1, 
  0xF7, 0x28, 0x18, 0xDA, 0xE7, 0xDD, 0xFB, 0xE6, 0x0F, 0x18, 0x10, 0xE2, 
  0xD8, 0xE8, 0xE7, 0x01, 0x20, 0xF9, 0xD9, 0xF6, 0xF1, 0x23, 0x23, 0xF8, 
  0xEA, 0xFC, 0xDE, 0xD6, 0xF7, 0x01, 0x1F, 0x00, 0xF5, 0xE9, 0xDA, 0x23, 
  0x11, 0xBC, 0xEE, 0x19, 0x17, 0xEE, 0x18, 0x03, 0xF8, 0x0F, 0xCB, 0xDB, 
  0x25, 0xE6, 0xE4, 0x21, 0x03, 0xCB, 0x06, 0x1B, 0xCF, 0x24, 0x22, 0xF6, 
  0xCD, 0xF3, 0x23, 0xAD, 0x09, 0x24, 0x0F, 0x02, 0x0B, 0x18, 0x1C, 0x1F, 
  0xD5, 0x0C, 0xE7, 0x10, 0xF1, 0x15, 0xD2, 0xEB, 0xF0, 0x1B, 0x11, 0xF6, 
  0xEC, 0x2B, 0x4D, 0xD6, 0x61, 0xFC, 0xE8, 0xF3, 0xE4, 0xFF, 0x20, 0x1B, 
  0x48, 0xD8, 0x1F, 0x25, 0x29, 0xE5, 0x1C, 0x0F, 0xD2, 0xFC, 0x39, 0xCB, 
  0xD8, 0x36, 0x1D, 0x5C, 0x01, 0x46, 0xE9, 0x54, 0x67, 0x19, 0xE7, 0xFA, 
  0x13, 0x20, 0xF2, 0x03, 0x02, 0x0A, 0x39, 0x38, 0x12, 0x05, 0x16, 0xFE, 
  0x22, 0xCC, 0x45, 0x0E, 0x28, 0xBE, 0xF8, 0x31, 0x0C, 0xA0, 0x12, 0x02, 
  0x15, 0x0C, 0xF7, 0x3D, 0x30, 0xC8, 0xD3, 0xE2, 0x3E, 0xB0, 0x1B, 0x0F, 
  0xEC, 0xBE, 0xFA, 0xE4, 0x22, 0xD9, 0xD5, 0x9F, 0xC2, 0xBD, 0xE9, 0xEB, 
  0x1C, 0x1E, 0xFF, 0x09, 0x14, 0xEE, 0x30, 0x13, 0x01, 0x03, 0xCD, 0xDE, 
  0x33, 0xF4, 0xF0, 0x18, 0xD7, 0x06, 0x03, 0xF2, 0xC0, 0x40, 0xDA, 0xB8, 
  0xF7, 0x0F, 0x20, 0xEE, 0x36, 0x02, 0xEB, 0x07, 0x2A, 0x42, 0x0B, 0x05, 
  0xEF, 0xF1, 0x19, 0xE0, 0x0A, 0x14, 0xFA, 0xD6, 0xF7, 0x1D, 0x1D, 0x21, 
  0x4F, 0x29, 0xD4, 0xF9, 0x25, 0x01, 0x06, 0xF8, 0x34, 0xE5, 0xE1, 0xF0, 
  0x0C, 0xD1, 0x2A, 0x0A, 0x25, 0xB9, 0xEE, 0xF2, 0xEF, 0x0F, 0xD4, 0xDF, 
  0xCA, 0x2F, 0xF7, 0x0A, 0x09, 0x29, 0x3B, 0xFC, 0xD5, 0x0C, 0x19, 0xFB, 
  0x0D, 0xF4, 0xC9, 0x10, 0x07, 0x07, 0x2E, 0x08, 0x57, 0xDC, 0x26, 0x0D, 
  0xFB, 0x37, 0x00, 0xF6, 0xD9, 0x19, 0xCD, 0xF7, 0xE0, 0x19, 0x2A, 0x12, 
  0x26, 0xAD, 0x3E, 0xF7, 0x3C, 0xC9, 0xF2, 0x46, 0x24, 0x23, 0xF0, 0xCA, 
  0xFE, 0x14, 0xE6, 0x0A, 0x0A, 0xD1, 0x09, 0xFA, 0x33, 0x0B, 0xF3, 0x28, 
  0x1B, 0xDC, 0xDE, 0xE2, 0x30, 0xD6, 0xDB, 0x39, 0xD7, 0xFA, 0x15, 0x2D, 
  0xF0, 0xDD, 0x1D, 0xDA, 0x07, 0xDF, 0x38, 0xD6, 0xF9, 0xD4, 0x11, 0x1C, 
  0xCE, 0x2B, 0x37, 0xFB, 0xD7, 0x32, 0xDB, 0x47, 0x09, 0xCD, 0xF0, 0xE8, 
  0xBE, 0x3B, 0xEF, 0xFC, 0x22, 0xED, 0x3F, 0xE4, 0x53, 0x2C, 0xF3, 0x0B, 
  0xF3, 0x27, 0x19, 0x4C, 0x65, 0x05, 0xEE, 0x29, 0xCE, 0x02, 0xDB, 0x2C, 
  0xEE, 0x45, 0x2F, 0x2E, 0xEF, 0xFD, 0x2A, 0xE2, 0x09, 0x5C, 0x29, 0xF1, 
  0x45, 0x4A, 0xBE, 0xE8, 0x35, 0xFB, 0xEE, 0xEF, 0x13, 0x1F, 0xF4, 0x1F, 
  0xE5, 0xD4, 0x01, 0x3F, 0x69, 0xCA, 0xE5, 0x21, 0xD7, 0x2B, 0x20, 0xC0, 
  0x18, 0x34, 0x06, 0x04, 0xFA, 0xD1, 0x34, 0x0B, 0x28, 0x17, 0x1A, 0xFB, 
  0xF2, 0x04, 0x13, 0xDE, 0x24, 0x10, 0x30, 0xD7, 0xDF, 0xE0, 0x01, 0x02, 
  0xE9, 0x05, 0xFB, 0xED, 0xE2, 0x2F, 0x2A, 0x22, 0x24, 0xC3, 0x1E, 0x1F, 
  0x37, 0x27, 0xB8, 0xFC, 0x10, 0xDC, 0x14, 0xFA, 0x30, 0xDB, 0xEA, 0x1F, 
  0xFA, 0xE2, 0xF7, 0xF6, 0xE4, 0x2A, 0x08, 0x34, 0xF8, 0x06, 0x3A, 0x10, 
  0xFD, 0x01, 0xD4, 0x05, 0x06, 0x11, 0x3A, 0xD6, 0x6A, 0xF3, 0x15, 0xF6, 
  0x21, 0x1B, 0x2F, 0xE8, 0x17, 0x16, 0x28, 0x19, 0xD5, 0xC6, 0xE9, 0x35, 
  0x26, 0xEF, 0x50, 0xC3, 0xF8, 0x32, 0x14, 0xD6, 0xD8, 0x22, 0xFF, 0xE6, 
  0xE7, 0x2C, 0x33, 0x35, 0x16, 0xEC, 0xE7, 0xB2, 0xBD, 0xFF, 0xF4, 0x07, 
  0xCB, 0xD6, 0x2F, 0xDB, 0x45, 0x42, 0xBB, 0x1C, 0x0F, 0x05, 0x0E, 0xE1, 
  0xF7, 0x0E, 0xCB, 0x09, 0xE9, 0x22, 0xFE, 0xD9, 0x22, 0x1D, 0xC1, 0x33, 
  0xDC, 0x0F, 0xF2, 0x38, 0x09, 0x2F, 0xFD, 0x0A, 0x0B, 0x36, 0xE9, 0x1D, 
  0x04, 0x3C, 0x40, 0x22, 0xE3, 0xD6, 0xDC, 0x55, 0x08, 0x23, 0x28, 0xEB, 
  0xFA, 0xF4, 0x16, 0x12, 0xEB, 0x01, 0x21, 0x22, 0xC4, 0x0D, 0xDF, 0xF1, 
  0xFD, 0xD9, 0x10, 0x23, 0x15, 0xE2, 0xFF, 0xE4, 0x08, 0xFA, 0xBF, 0x25, 
  0x33, 0x01, 0xC0, 0xEE, 0x49, 0xDB, 0x97, 0x2A, 0x04, 0x48, 0x2B, 0xDF, 
  0x33, 0x05, 0x07, 0x01, 0x1B, 0xF6, 0x47, 0x27, 0x14, 0xF4, 0xD5, 0xCE, 
  0x27, 0x1A, 0xD3, 0x1E, 0xEA, 0x06, 0x21, 0x04, 0xB7, 0x1C, 0xA5, 0xE0, 
  0x08, 0x21, 0x24, 0xFF, 0x0B, 0x51, 0xF7, 0x05, 0x24, 0x1E, 0x50, 0xE2, 
  0x01, 0xEE, 0x1B, 0xDC, 0x1B, 0xE8, 0x43, 0x22, 0xC6, 0xFB, 0x0B, 0x2A, 
  0x05, 0x5A, 0xCB, 0xE7, 0xE0, 0x1C, 0x14, 0x30, 0xE5, 0x4D, 0xF6, 0xFD, 
  0x11, 0x1A, 0xF1, 0x00, 0x19, 0x13, 0xFC, 0x1F, 0x44, 0x14, 0x48, 0xC3, 
  0xD5, 0x28, 0xFB, 0x25, 0xFA, 0xBA, 0x23, 0x3C, 0x2B, 0x50, 0x12, 0x14, 
  0xB4, 0xF9, 0xBA, 0x55, 0x19, 0x63, 0xE2, 0xD9, 0x1C, 0xBB, 0x37, 0x01, 
  0xF4, 0x20, 0x0F, 0xEE, 0xFA, 0x29, 0x14, 0xFE, 0xE3, 0xFE, 0x1E, 0xE2, 
  0xA4, 0x2B, 0x13, 0x29, 0x1C, 0x41, 0xE4, 0x25, 0xF9, 0x22, 0xC7, 0x1F, 
  0x4A, 0x19, 0xA9, 0x30, 0xD7, 0x2E, 0xE0, 0xF2, 0xD5, 0x6F, 0xD5, 0xED, 
  0x5A, 0xE1, 0x4F, 0x42, 0x38, 0xFC, 0xE2, 0xF0, 0xE0, 0x15, 0x0A, 0x20, 
  0x0C, 0x26, 0x1B, 0x13, 0xEB, 0x0D, 0xB5, 0x48, 0x04, 0xD3, 0x01, 0xD5, 
  0xDE, 0x1E, 0xC2, 0x0A, 0xF3, 0x1D, 0xF0, 0x39, 0x0C, 0x31, 0xC0, 0x34, 
  0xFF, 0xD0, 0xEF, 0xE1, 0x21, 0x1C, 0xFA, 0x19, 0xEA, 0xF6, 0x33, 0x0A, 
  0x19, 0x0D, 0x49, 0xD7, 0xED, 0xFB, 0xFE, 0xF8, 0x21, 0xE6, 0x2D, 0xF8, 
  0x5A, 0xF3, 0x24, 0xFE, 0xE8, 0x15, 0xAC, 0x2B, 0xE5, 0x2D, 0xFC, 0xCF, 
  0x3B, 0x11, 0xD2, 0xF1, 0x2A, 0xD1, 0x1C, 0xFC, 0x2B, 0xEF, 0x38, 0xDC, 
  0xBA, 0xF5, 0xD5, 0xEE, 0x02, 0xFC, 0xFC, 0xF8, 0x20, 0x02, 0x09, 0xC6, 
  0xCF, 0xFC, 0xF2, 0xF2, 0xE5, 0x18, 0xE5, 0x21, 0x15, 0x29, 0xA7, 0xE9, 
  0xFC, 0x3C, 0xFF, 0xCD, 0x11, 0x28, 0xE3, 0x21, 0x08, 0xF6, 0xBD, 0x3B, 
  0x11, 0x46, 0x2C, 0xD9, 0x44, 0x2B, 0x42, 0xF2, 0x31, 0xFA, 0x32, 0x0E, 
  0x3D, 0x42, 0x43, 0xE5, 0x1B, 0x41, 0xFA, 0xFD, 0xED, 0xD9, 0xEE, 0x24, 
  0x2D, 0x01, 0xF8, 0xEF, 0x1B, 0xDB, 0x13, 0x00, 0xF7, 0xE4, 0x0A, 0x2E, 
  0xD2, 0xF9, 0x0C, 0x0C, 0xFE, 0x0F, 0x20, 0x5E, 0x21, 0x18, 0x3D, 0xD3, 
  0x19, 0x18, 0xF4, 0x22, 0xEB, 0xC3, 0x45, 0x0B, 0x21, 0xD6, 0x09, 0x25, 
  0xD4, 0x11, 0xFF, 0x0B, 0x15, 0xD1, 0x07, 0x0E, 0xF6, 0xB8, 0x03, 0xF7, 
  0xFF, 0x57, 0x15, 0x0D, 0x13, 0x0C, 0xBC, 0x34, 0xFF, 0xBB, 0x0C, 0x66, 
  0x29, 0xD9, 0xF1, 0x00, 0xDD, 0x03, 0xDB, 0xDB, 0x28, 0xF6, 0xFA, 0x2C, 
  0x04, 0x60, 0xFC, 0xF8, 0x04, 0xF8, 0x2F, 0xFD, 0x0C, 0xEB, 0x4A, 0xE8, 
  0x23, 0x0C, 0x20, 0xF2, 0x09, 0xF3, 0x56, 0x29, 0xF1, 0x19, 0x11, 0xEE, 
  0xB9, 0xEA, 0x16, 0x09, 0xDC, 0xF7, 0x4D, 0xF6, 0x24, 0xB9, 0xF7, 0x2D, 
  0xF1, 0xED, 0xF6, 0x31, 0x04, 0x22, 0x1D, 0xFE, 0xFF, 0x1B, 0x0F, 0x47, 
  0xA5, 0xF1, 0x09, 0xE8, 0x2D, 0x17, 0xF6, 0xF3, 0x1D, 0xF4, 0x38, 0x12, 
  0xF8, 0x08, 0x20, 0xD3, 0x20, 0x31, 0xA1, 0x0F, 0x2C, 0xFE, 0xF8, 0x27, 
  0x5B, 0xF7, 0xE8, 0x12, 0xCF, 0x0C, 0x1B, 0x28, 0x3D, 0xED, 0x3F, 0xDD, 
  0xFF, 0xF7, 0xFE, 0x0C, 0xFA, 0xF4, 0x6B, 0xFA, 0xFB, 0xED, 0x14, 0xD8, 
  0xFA, 0xED, 0xE5, 0x53, 0xF6, 0xD4, 0xEB, 0x14, 0xD8, 0x49, 0xBD, 0xE3, 
  0x00, 0xCB, 0x03, 0x21, 0xE3, 0x31, 0xFF, 0xDC, 0xFE, 0x34, 0x3A, 0x2C, 
  0x00, 0xE0, 0x2E, 0x2B, 0x1A, 0x1F, 0x21, 0x1C, 0xDD, 0xDA, 0xC2, 0x03, 
  0x29, 0x09, 0xC4, 0x54, 0xBE, 0xE1, 0xE0, 0x08, 0xDC, 0xC8, 0xCD, 0x26, 
  0x13, 0xFB, 0xCA, 0xF9, 0x1D, 0xD5, 0xDA, 0x23, 0x0C, 0x09, 0xD9, 0xB5, 
  0xD7, 0x0C, 0xEE, 0xE9, 0x06, 0xEE, 0x09, 0xFC, 0x0F, 0xF1, 0xFF, 0x2A, 
  0x19, 0x1E, 0xDF, 0xFD, 0x35, 0xE0, 0x07, 0xA9, 0x24, 0x26, 0xF8, 0xEF, 
  0xFD, 0xE4, 0xF7, 0xB1, 0x0E, 0xF3, 0xE2, 0xCC, 0x29, 0x37, 0x1C, 0xE7, 
  0x2D, 0x20, 0xDA, 0xBE, 0xEC, 0x11, 0x0A, 0x1E, 0x5C, 0xEF, 0xD8, 0xF6, 
  0x04, 0xF2, 0x18, 0x02, 0x4A, 0xE0, 0xF0, 0x18, 0xE6, 0xD5, 0x14, 0x04, 
  0x23, 0x1A, 0x07, 0xD1, 0xE9, 0x25, 0x32, 0xFB, 0xD8, 0xFD, 0x06, 0x00, 
  0x27, 0x0E, 0xDF, 0xFB, 0xD7, 0x07, 0xBA, 0xF1, 0x33, 0x07, 0x1D, 0x03, 
  0x0B, 0x47, 0x29, 0xC7, 0xEE, 0xFD, 0x24, 0xF2, 0xF7, 0x1E, 0x51, 0xF3, 
  0x31, 0x1D, 0xF0, 0x12, 0x08, 0xF8, 0x57, 0xE8, 0x0F, 0x11, 0xDD, 0x46, 
  0xFB, 0x45, 0x48, 0xCE, 0xEA, 0x46, 0xB4, 0x07, 0x24, 0x0F, 0xEB, 0x27, 
  0xD4, 0x0D, 0xE3, 0x3D, 0x29, 0xF5, 0xD0, 0x14, 0x2D, 0xCE, 0xF0, 0x28, 
  0xF2, 0xFD, 0x10, 0x07, 0xDC, 0x44, 0xF2, 0x28, 0xF0, 0xC5, 0xDA, 0x04, 
  0x24, 0x32, 0x17, 0xF3, 0xD2, 0x39, 0xDF, 0xDD, 0x27, 0xDF, 0x1C, 0xC8, 
  0xE8, 0xE3, 0x48, 0x1B, 0x41, 0x54, 0xE9, 0x03, 0x06, 0x04, 0xFF, 0x2E, 
  0xF1, 0xF6, 0xD5, 0x59, 0x14, 0x1D, 0x41, 0x03, 0xE7, 0xDD, 0xFB, 0xE3, 
  0xDB, 0x16, 0x2C, 0xEE, 0x77, 0xD6, 0x1E, 0x7C, 0x54, 0x0E, 0x09, 0x14, 
  0xF9, 0x37, 0x05, 0x19, 0x02, 0x06, 0xE8, 0xF5, 0x02, 0xCC, 0xFB, 0x3E, 
  0xF5, 0xF4, 0xF3, 0x7F, 0xF7, 0xE1, 0xAE, 0x03, 0x1F, 0xEC, 0x10, 0x08, 
  0x1F, 0x07, 0xFE, 0x06, 0x06, 0x2B, 0xDC, 0x2B, 0x42, 0x1C, 0x13, 0xE6, 
  0xF5, 0x04, 0xAC, 0xE3, 0x00, 0x36, 0xE5, 0x15, 0x24, 0x00, 0x1F, 0x19, 
  0x0B, 0x09, 0x15, 0x12, 0x45, 0xD0, 0x11, 0x0E, 0x26, 0x09, 0x34, 0x46, 
  0x22, 0x2D, 0x02, 0xF1, 0xF4, 0x03, 0x09, 0xDF, 0x09, 0xC2, 0xDD, 0x17, 
  0xC8, 0x11, 0x26, 0xF6, 0xB7, 0x20, 0xCB, 0x32, 0xFD, 0xE5, 0xAA, 0x00, 
  0x12, 0xF4, 0x0B, 0x16, 0x13, 0x1B, 0x17, 0x09, 0xF2, 0xF7, 0xEB, 0x23, 
  0x01, 0x0A, 0x00, 0x16, 0xEC, 0x2C, 0xBE, 0x00, 0x03, 0xED, 0x4F, 0x9A, 
  0x10, 0x18, 0x1D, 0x0B, 0xEC, 0xD8, 0x1B, 0x10, 0xE1, 0xD7, 0xE6, 0x29, 
  0x2C, 0x16, 0x24, 0xD9, 0xD8, 0xED, 0x1E, 0x26, 0x14, 0xE0, 0x40, 0xE0, 
  0xDD, 0x0E, 0x20, 0xDC, 0x4E, 0x09, 0x04, 0x1F, 0x06, 0xFD, 0xF9, 0xF6, 
  0xF7, 0x23, 0xCD, 0x22, 0x29, 0xB8, 0xFB, 0x31, 0x0E, 0xE3, 0x3B, 0x4B, 
  0x0C, 0x00, 0xCA, 0xFB, 0x28, 0x2F, 0xE3, 0xE6, 0x40, 0x1F, 0xAD, 0xD6, 
  0xDD, 0x0C, 0x3D, 0x27, 0x31, 0xC5, 0x1A, 0xED, 0xDA, 0x0F, 0x3B, 0x1E, 
  0x29, 0x1B, 0x1C, 0x28, 0xF4, 0xF4, 0x14, 0xF3, 0xF8, 0x28, 0x2F, 0xFC, 
  0xF0, 0x0E, 0x41, 0xD5, 0x1B, 0x12, 0x0C, 0x17, 0xEA, 0x18, 0xE1, 0x2B, 
  0xEA, 0x29, 0xD1, 0x0D, 0x01, 0xF1, 0xF5, 0x09, 0xFC, 0x21, 0xF5, 0xCF, 
  0x07, 0x27, 0x1C, 0x40, 0x22, 0xF2, 0xFB, 0x52, 0xF6, 0xFD, 0xDD, 0xF8, 
  0x2B, 0x2C, 0x34, 0xF8, 0xFA, 0xE4, 0x33, 0xE0, 0x0A, 0xFD, 0x21, 0x1A, 
  0x36, 0x1C, 0x09, 0xD6, 0x12, 0xE4, 0x01, 0xDF, 0xD6, 0x06, 0x1A, 0xFD, 
  0xA4, 0x05, 0x0B, 0x23, 0x18, 0xD2, 0x53, 0x2D, 0xD6, 0xB1, 0xE2, 0xBD, 
  0x47, 0x1A, 0x2C, 0xFA, 0x33, 0xFD, 0xFC, 0xA8, 0x20, 0x29, 0x00, 0x2D, 
  0xA2, 0xF6, 0xF3, 0xE4, 0xF4, 0xDC, 0xFE, 0x06, 0x01, 0xD9, 0x4C, 0xF4, 
  0x00, 0x0A, 0x20, 0xE9, 0xF3, 0xF9, 0xDA, 0x09, 0x06, 0x48, 0xFE, 0x11, 
  0xBB, 0xF0, 0xCD, 0x38, 0xF1, 0xEF, 0xF4, 0xE5, 0xBC, 0xFF, 0xD0, 0xD7, 
  0x17, 0x01, 0xF8, 0xEB, 0x5A, 0xFF, 0xE5, 0x16, 0xFE, 0x0A, 0x05, 0x36, 
  0xF4, 0x53, 0x01, 0x0F, 0xED, 0xE8, 0xF2, 0xFC, 0x20, 0x32, 0x2F, 0x34, 
  0x14, 0xD5, 0xFA, 0xFF, 0x19, 0x09, 0x10, 0x5F, 0x19, 0x06, 0x2C, 0x20, 
  0xC3, 0xF7, 0xAE, 0x1A, 0x05, 0xFE, 0xDB, 0x2D, 0x50, 0xAC, 0x14, 0x44, 
  0x22, 0xEC, 0xC8, 0xDF, 0xAC, 0xD9, 0x12, 0x26, 0x04, 0x1D, 0x0B, 0xFF, 
  0x3E, 0x07, 0xC5, 0xD3, 0xE5, 0xD6, 0x33, 0xCC, 0x39, 0x28, 0xDA, 0x0E, 
  0x03, 0x21, 0xAF, 0x18, 0x28, 0x28, 0x23, 0x38, 0xCD, 0xE1, 0xF8, 0x0A, 
  0xFB, 0x2B, 0xF6, 0x06, 0x46, 0xFB, 0x2A, 0xBA, 0x25, 0x2E, 0x02, 0xF3, 
  0x23, 0xD2, 0x24, 0x13, 0x07, 0xF3, 0xD4, 0x0E, 0x15, 0xDE, 0x22, 0xD6, 
  0x1E, 0xF2, 0xCA, 0xFF, 0x2A, 0xFF, 0xAC, 0x31, 0xCD, 0xF0, 0xB6, 0x45, 
  0xB4, 0xC6, 0x1E, 0x04, 0x1B, 0xFD, 0xDF, 0x16, 0x0A, 0xAE, 0x18, 0xFB, 
  0x35, 0x05, 0x26, 0xEC, 0xB6, 0x34, 0xC9, 0x2B, 0x1A, 0xF3, 0xDA, 0x25, 
  0xE7, 0xB9, 0xFD, 0x00, 0xDB, 0x3A, 0xE2, 0xFA, 0x0D, 0x13, 0x35, 0xE0, 
  0x27, 0x46, 0x08, 0x15, 0xEA, 0x0B, 0x1F, 0x29, 0xE5, 0x0D, 0xE0, 0xF6, 
  0xF1, 0xDD, 0xF8, 0x04, 0x37, 0x9B, 0xE7, 0x0E, 0xF7, 0x34, 0x15, 0x1A, 
  0xB7, 0x09, 0xF7, 0x21, 0x0F, 0xD3, 0x34, 0xDD, 0xD5, 0x05, 0xFA, 0xFA, 
  0xD7, 0x10, 0xE2, 0x01, 0x22, 0x2D, 0xF2, 0xF2, 0x07, 0x04, 0xC2, 0x29, 
  0xE3, 0x0F, 0xDE, 0x3E, 0xE7, 0xC8, 0xE9, 0xF2, 0x0E, 0x2F, 0x15, 0xC9, 
  0x32, 0xC3, 0x01, 0xCC, 0x2D, 0xF5, 0x27, 0x44, 0x16, 0x17, 0xE8, 0xEA, 
  0xE5, 0xD9, 0x9F, 0x2F, 0x0F, 0xED, 0xD9, 0x0C, 0x15, 0x28, 0xE8, 0x13, 
  0xED, 0xF1, 0xEC, 0x1D, 0x53, 0xD8, 0xF4, 0xE2, 0xCC, 0xDD, 0x0F, 0x1A, 
  0x2E, 0x13, 0x08, 0xDC, 0xE0, 0xE0, 0xE7, 0x0B, 0xEE, 0xD5, 0x49, 0x15, 
  0x04, 0xF8, 0x19, 0xD1, 0x11, 0xF0, 0xE7, 0xED, 0x1E, 0x39, 0x26, 0x13, 
  0xDD, 0x12, 0xDD, 0x2C, 0xF5, 0x2A, 0x3D, 0x32, 0x28, 0x45, 0x1F, 0xDB, 
  0xD4, 0x08, 0x24, 0xF9, 0x4F, 0x0A, 0x33, 0xDF, 0x3A, 0xFD, 0xFF, 0xFF, 
  0x04, 0x00, 0x00, 0x00, 0x80, 0x00, 0x00, 0x00, 0x13, 0x09, 0x00, 0x00, 
  0xE3, 0xFF, 0xFF, 0xFF, 0x7D, 0xFC, 0xFF, 0xFF, 0x8C, 0xFD, 0xFF, 0xFF, 
  0xBB, 0x06, 0x00, 0x00, 0xD5, 0x01, 0x00, 0x00, 0x13, 0x01, 0x00, 0x00, 
  0x7B, 0x05, 0x00, 0x00, 0x09, 0x0A, 0x00, 0x00, 0x51, 0x01, 0x00, 0x00, 
  0x53, 0x04, 0x00, 0x00, 0x2B, 0x03, 0x00, 0x00, 0x02, 0xFE, 0xFF, 0xFF, 
  0x1B, 0x0E, 0x00, 0x00, 0xA4, 0xFE, 0xFF, 0xFF, 0x99, 0x09, 0x00, 0x00, 
  0x06, 0x06, 0x00, 0x00, 0x29, 0x01, 0x00, 0x00, 0x3A, 0x01, 0x00, 0x00, 
  0x54, 0x03, 0x00, 0x00, 0xD8, 0x03, 0x00, 0x00, 0x6B, 0x07, 0x00, 0x00, 
  0x0E, 0x07, 0x00, 0x00, 0xA7, 0x05, 0x00, 0x00, 0xB2, 0xFE, 0xFF, 0xFF, 
  0xAA, 0xFE, 0xFF, 0xFF, 0x95, 0x05, 0x00, 0x00, 0x85, 0x0B, 0x00, 0x00, 
  0x48, 0x08, 0x00, 0x00, 0x8D, 0x06, 0x00, 0x00, 0x6A, 0x07, 0x00, 0x00, 
  0x15, 0xFD, 0xFF, 0xFF, 0xC6, 0xFD, 0xFF, 0xFF, 0x04, 0x00, 0x00, 0x00, 
  0x60, 0x01, 0x00, 0x00, 0x3F, 0x0F, 0xDB, 0x02, 0x2C, 0xB5, 0xBE, 0xE0, 
  0xFF, 0x0F, 0xBB, 0xC4, 0x36, 0x01, 0xE0, 0x15, 0x49, 0x43, 0xC7, 0xDB, 
  0xDB, 0xF5, 0x06, 0xA7, 0x15, 0xD0, 0x4B, 0xFB, 0xB9, 0xE1, 0xCC, 0xC7, 
  0xCA, 0xEE, 0xE6, 0x46, 0xCB, 0x2D, 0x03, 0x1A, 0xEA, 0x0B, 0x1B, 0xE7, 
  0x20, 0xBC, 0x08, 0xF1, 0xD1, 0x28, 0x31, 0xEA, 0x2B, 0xDC, 0xCD, 0xCA, 
  0x14, 0x20, 0x1A, 0x9C, 0xD6, 0xF7, 0xC2, 0x2F, 0xF2, 0x32, 0xD6, 0x20, 
  0xCE, 0xCB, 0x3B, 0x2D, 0x9C, 0xAF, 0xF9, 0x03, 0x28, 0x14, 0xBA, 0xE4, 
  0x19, 0xFA, 0x12, 0xDE, 0xF2, 0xCA, 0x22, 0xFD, 0xC6, 0x06, 0xE8, 0x30, 
  0x3A, 0x37, 0x3B, 0xD4, 0xB2, 0x09, 0x1F, 0x11, 0x33, 0x31, 0x1F, 0x04, 
  0xFF, 0xFE, 0xA1, 0x1C, 0x1E, 0x0D, 0x09, 0x3C, 0x2B, 0xBD, 0xBD, 0xEA, 
  0xF1, 0xBC, 0xC8, 0xB4, 0x12, 0xD4, 0xFE, 0x37, 0x29, 0xEE, 0x49, 0xB6, 
  0x15, 0xE8, 0x19, 0xFB, 0x45, 0xAF, 0x44, 0xB2, 0x0D, 0xA3, 0x12, 0x2C, 
  0xF0, 0x29, 0xE7, 0xD2, 0x03, 0xB8, 0xA5, 0xD1, 0xBC, 0x44, 0x31, 0xFC, 
  0x93, 0xC2, 0xBC, 0x1E, 0xED, 0xAA, 0xDC, 0x90, 0x2A, 0xFA, 0x05, 0xC2, 
  0x36, 0xE6, 0xB8, 0xDB, 0x9A, 0xE0, 0x1F, 0x2C, 0xB3, 0xEF, 0x3B, 0xD4, 
  0xCC, 0xB6, 0x0B, 0x5C, 0x37, 0x14, 0x1F, 0x06, 0x9D, 0x0C, 0xE7, 0x23, 
  0x11, 0x42, 0xFF, 0xEC, 0xDE, 0x05, 0x26, 0xD0, 0xA0, 0xF3, 0xE2, 0xA6, 
  0x13, 0xDC, 0x35, 0x39, 0x45, 0x2D, 0xDC, 0x33, 0xB2, 0xE9, 0xC6, 0xA0, 
  0xAD, 0x04, 0x21, 0xDB, 0x2B, 0x01, 0xDB, 0x26, 0xEA, 0xE3, 0xBC, 0xC8, 
  0x14, 0xF1, 0xDF, 0xF9, 0xC8, 0xA4, 0xB9, 0xF5, 0xD0, 0xA8, 0x27, 0xC5, 
  0x18, 0x1F, 0xCD, 0xA6, 0xCD, 0x2F, 0x29, 0xC1, 0x3C, 0x35, 0x24, 0x19, 
  0xCE, 0x2E, 0xAA, 0xF8, 0xCB, 0xC4, 0xA2, 0x11, 0xA9, 0xFC, 0x1B, 0x41, 
  0xE0, 0xE2, 0xE9, 0x2F, 0xB9, 0x10, 0xBB, 0xA2, 0xC2, 0xC3, 0x36, 0x20, 
  0x2B, 0xCE, 0x1A, 0xEF, 0x19, 0x06, 0x1B, 0xF4, 0xFC, 0xFD, 0xC2, 0x0A, 
  0x42, 0x36, 0xF0, 0x3D, 0xA4, 0xF7, 0x18, 0xDD, 0x14, 0xCF, 0x05, 0x02, 
  0x12, 0xF3, 0xDD, 0xD5, 0x24, 0xBE, 0x0C, 0xD6, 0x31, 0x26, 0x3A, 0xDE, 
  0x0E, 0xD5, 0x15, 0x18, 0x38, 0x12, 0x2D, 0xD7, 0xD0, 0xB0, 0xC4, 0x11, 
  0xE1, 0x2E, 0xCF, 0xCD, 0xF3, 0xFB, 0xEE, 0x81, 0x3D, 0x08, 0xAA, 0x0F, 
  0x05, 0x14, 0xE6, 0x54, 0xDC, 0x0C, 0xBC, 0x04, 0x0A, 0x47, 0xA7, 0xB5, 
  0xD0, 0xAE, 0x51, 0x8E, 0x31, 0xE4, 0xB4, 0xF2, 0x32, 0xFF, 0xFF, 0xFF, 
  0x04, 0x00, 0x00, 0x00, 0x2C, 0x00, 0x00, 0x00, 0x21, 0x02, 0x00, 0x00, 
  0xD7, 0xFB, 0xFF, 0xFF, 0x9E, 0xFE, 0xFF, 0xFF, 0x2A, 0xFF, 0xFF, 0xFF, 
  0xD6, 0x02, 0x00, 0x00, 0xDC, 0xFC, 0xFF, 0xFF, 0x43, 0x02, 0x00, 0x00, 
  0x31, 0x01, 0x00, 0x00, 0xED, 0xFF, 0xFF, 0xFF, 0xED, 0xFE, 0xFF, 0xFF, 
  0xBF, 0x02, 0x00, 0x00, 0x38, 0xFF, 0xFF, 0xFF, 0x3C, 0xFF, 0xFF, 0xFF, 
  0x0F, 0x00, 0x00, 0x00, 0x4D, 0x4C, 0x49, 0x52, 0x20, 0x43, 0x6F, 0x6E, 
  0x76, 0x65, 0x72, 0x74, 0x65, 0x64, 0x2E, 0x00, 0x01, 0x00, 0x00, 0x00, 
  0x14, 0x00, 0x00, 0x00, 0x00, 0x00, 0x0E, 0x00, 0x18, 0x00, 0x14, 0x00, 
  0x10, 0x00, 0x0C, 0x00, 0x08, 0x00, 0x04, 0x00, 0x0E, 0x00, 0x00, 0x00, 
  0x14, 0x00, 0x00, 0x00, 0x1C, 0x00, 0x00, 0x00, 0x28, 0x01, 0x00, 0x00, 
  0x2C, 0x01, 0x00, 0x00, 0x30, 0x01, 0x00, 0x00, 0x04, 0x00, 0x00, 0x00, 
  0x6D, 0x61, 0x69, 0x6E, 0x00, 0x00, 0x00, 0x00, 0x04, 0x00, 0x00, 0x00, 
  0xD0, 0x00, 0x00, 0x00, 0x88, 0x00, 0x00, 0x00, 0x50, 0x00, 0x00, 0x00, 
  0x14, 0x00, 0x00, 0x00, 0x00, 0x00, 0x0E, 0x00, 0x1A, 0x00, 0x14, 0x00, 
  0x10, 0x00, 0x0C, 0x00, 0x0B, 0x00, 0x04, 0x00, 0x0E, 0x00, 0x00, 0x00, 
  0x1C, 0x00, 0x00, 0x00, 0x00, 0x00, 0x00, 0x09, 0x1C, 0x00, 0x00, 0x00, 
  0x20, 0x00, 0x00, 0x00, 0x01, 0x00, 0x00, 0x00, 0x00, 0x00, 0x06, 0x00, 
  0x08, 0x00, 0x04, 0x00, 0x06, 0x00, 0x00, 0x00, 0x00, 0x00, 0x80, 0x3F, 
  0x01, 0x00, 0x00, 0x00, 0x0A, 0x00, 0x00, 0x00, 0x01, 0x00, 0x00, 0x00, 
  0x09, 0x00, 0x00, 0x00, 0x96, 0xFF, 0xFF, 0xFF, 0x14, 0x00, 0x00, 0x00, 
  0x00, 0x00, 0x00, 0x08, 0x10, 0x00, 0x00, 0x00, 0x14, 0x00, 0x00, 0x00, 
  0x04, 0x00, 0x04, 0x00, 0x04, 0x00, 0x00, 0x00, 0x01, 0x00, 0x00, 0x00, 
  0x09, 0x00, 0x00, 0x00, 0x03, 0x00, 0x00, 0x00, 0x08, 0x00, 0x00, 0x00, 
  0x02, 0x00, 0x00, 0x00, 0x01, 0x00, 0x00, 0x00, 0xCA, 0xFF, 0xFF, 0xFF, 
  0x10, 0x00, 0x00, 0x00, 0x00, 0x00, 0x00, 0x08, 0x10, 0x00, 0x00, 0x00, 
  0x14, 0x00, 0x00, 0x00, 0xBA, 0xFF, 0xFF, 0xFF, 0x00, 0x00, 0x00, 0x01, 
  0x01, 0x00, 0x00, 0x00, 0x08, 0x00, 0x00, 0x00, 0x03, 0x00, 0x00, 0x00, 
  0x07, 0x00, 0x00, 0x00, 0x04, 0x00, 0x00, 0x00, 0x03, 0x00, 0x00, 0x00, 
  0x00, 0x00, 0x0E, 0x00, 0x16, 0x00, 0x00, 0x00, 0x10, 0x00, 0x0C, 0x00, 
  0x0B, 0x00, 0x04, 0x00, 0x0E, 0x00, 0x00, 0x00, 0x18, 0x00, 0x00, 0x00, 
  0x00, 0x00, 0x00, 0x08, 0x18, 0x00, 0x00, 0x00, 0x1C, 0x00, 0x00, 0x00, 
  0x00, 0x00, 0x06, 0x00, 0x08, 0x00, 0x07, 0x00, 0x06, 0x00, 0x00, 0x00, 
  0x00, 0x00, 0x00, 0x01, 0x01, 0x00, 0x00, 0x00, 0x07, 0x00, 0x00, 0x00, 
  0x03, 0x00, 0x00, 0x00, 0x00, 0x00, 0x00, 0x00, 0x06, 0x00, 0x00, 0x00, 
  0x05, 0x00, 0x00, 0x00, 0x01, 0x00, 0x00, 0x00, 0x0A, 0x00, 0x00, 0x00, 
  0x01, 0x00, 0x00, 0x00, 0x00, 0x00, 0x00, 0x00, 0x0B, 0x00, 0x00, 0x00, 
  0x18, 0x05, 0x00, 0x00, 0x90, 0x04, 0x00, 0x00, 0x14, 0x04, 0x00, 0x00, 
  0xA0, 0x03, 0x00, 0x00, 0x34, 0x03, 0x00, 0x00, 0xC0, 0x02, 0x00, 0x00, 
  0x54, 0x02, 0x00, 0x00, 0xB0, 0x01, 0x00, 0x00, 0x0C, 0x01, 0x00, 0x00, 
  0x80, 0x00, 0x00, 0x00, 0x04, 0x00, 0x00, 0x00, 0x2A, 0xFB, 0xFF, 0xFF, 
  0x00, 0x00, 0x00, 0x01, 0x18, 0x00, 0x00, 0x00, 0x20, 0x00, 0x00, 0x00, 
  0x3C, 0x00, 0x00, 0x00, 0x0B, 0x00, 0x00, 0x00, 0x00, 0x00, 0x00, 0x09, 
  0x50, 0x00, 0x00, 0x00, 0x02, 0x00, 0x00, 0x00, 0xFF, 0xFF, 0xFF, 0xFF, 
  0x0B, 0x00, 0x00, 0x00, 0x14, 0xFB, 0xFF, 0xFF, 0x08, 0x00, 0x00, 0x00, 
  0x10, 0x00, 0x00, 0x00, 0x01, 0x00, 0x00, 0x00, 0x80, 0xFF, 0xFF, 0xFF, 
  0xFF, 0xFF, 0xFF, 0xFF, 0x01, 0x00, 0x00, 0x00, 0x00, 0x00, 0x80, 0x3B, 
  0x19, 0x00, 0x00, 0x00, 0x53, 0x74, 0x61, 0x74, 0x65, 0x66, 0x75, 0x6C, 
  0x50, 0x61, 0x72, 0x74, 0x69, 0x74, 0x69, 0x6F, 0x6E, 0x65, 0x64, 0x43, 
  0x61, 0x6C, 0x6C, 0x3A, 0x30, 0x00, 0x00, 0x00, 0x02, 0x00, 0x00, 0x00, 
  0x01, 0x00, 0x00, 0x00, 0x0B, 0x00, 0x00, 0x00, 0xA2, 0xFB, 0xFF, 0xFF, 
  0x00, 0x00, 0x00, 0x01, 0x18, 0x00, 0x00, 0x00, 0x20, 0x00, 0x00, 0x00, 
  0x3C, 0x00, 0x00, 0x00, 0x0A, 0x00, 0x00, 0x00, 0x00, 0x00, 0x00, 0x09, 
  0x60, 0x00, 0x00, 0x00, 0x02, 0x00, 0x00, 0x00, 0xFF, 0xFF, 0xFF, 0xFF, 
  0x0B, 0x00, 0x00, 0x00, 0x8C, 0xFB, 0xFF, 0xFF, 0x08, 0x00, 0x00, 0x00, 
  0x10, 0x00, 0x00, 0x00, 0x01, 0x00, 0x00, 0x00, 0x26, 0x00, 0x00, 0x00, 
  0x00, 0x00, 0x00, 0x00, 0x01, 0x00, 0x00, 0x00, 0xB0, 0x5D, 0xFE, 0x3D, 
  0x28, 0x00, 0x00, 0x00, 0x6D, 0x6F, 0x64, 0x65, 0x6C, 0x2F, 0x6C, 0x6F, 
  0x67, 0x69, 0x74, 0x73, 0x2F, 0x4D, 0x61, 0x74, 0x4D, 0x75, 0x6C, 0x3B, 
  0x6D, 0x6F, 0x64, 0x65, 0x6C, 0x2F, 0x6C, 0x6F, 0x67, 0x69, 0x74, 0x73, 
  0x2F, 0x42, 0x69, 0x61, 0x73, 0x41, 0x64, 0x64, 0x00, 0x00, 0x00, 0x00, 
  0x02, 0x00, 0x00, 0x00, 0x01, 0x00, 0x00, 0x00, 0x0B, 0x00, 0x00, 0x00, 
  0x2A, 0xFC, 0xFF, 0xFF, 0x00, 0x00, 0x00, 0x01, 0x18, 0x00, 0x00, 0x00, 
  0x20, 0x00, 0x00, 0x00, 0x40, 0x00, 0x00, 0x00, 0x09, 0x00, 0x00, 0x00, 
  0x00, 0x00, 0x00, 0x09, 0x78, 0x00, 0x00, 0x00, 0x02, 0x00, 0x00, 0x00, 
  0xFF, 0xFF, 0xFF, 0xFF, 0x20, 0x00, 0x00, 0x00, 0x14, 0xFC, 0xFF, 0xFF, 
  0x08, 0x00, 0x00, 0x00, 0x14, 0x00, 0x00, 0x00, 0x01, 0x00, 0x00, 0x00, 
  0x80, 0xFF, 0xFF, 0xFF, 0xFF, 0xFF, 0xFF, 0xFF, 0x00, 0x00, 0x00, 0x00, 
  0x01, 0x00, 0x00, 0x00, 0xAB, 0x25, 0xCC, 0x3C, 0x3D, 0x00, 0x00, 0x00, 
  0x6D, 0x6F, 0x64, 0x65, 0x6C, 0x2F, 0x64, 0x65, 0x6E, 0x73, 0x65, 0x5F, 
  0x31, 0x2F, 0x4D, 0x61, 0x74, 0x4D, 0x75, 0x6C, 0x3B, 0x6D, 0x6F, 0x64, 
  0x65, 0x6C, 0x2F, 0x64, 0x65, 0x6E, 0x73, 0x65, 0x5F, 0x31, 0x2F, 0x52, 
  0x65, 0x6C, 0x75, 0x3B, 0x6D, 0x6F, 0x64, 0x65, 0x6C, 0x2F, 0x64, 0x65, 
  0x6E, 0x73, 0x65, 0x5F, 0x31, 0x2F, 0x42, 0x69, 0x61, 0x73, 0x41, 0x64, 
  0x64, 0x00, 0x00, 0x00, 0x02, 0x00, 0x00, 0x00, 0x01, 0x00, 0x00, 0x00, 
  0x20, 0x00, 0x00, 0x00, 0xCA, 0xFC, 0xFF, 0xFF, 0x00, 0x00, 0x00, 0x01, 
  0x18, 0x00, 0x00, 0x00, 0x20, 0x00, 0x00, 0x00, 0x40, 0x00, 0x00, 0x00, 
  0x08, 0x00, 0x00, 0x00, 0x00, 0x00, 0x00, 0x09, 0x78, 0x00, 0x00, 0x00, 
  0x02, 0x00, 0x00, 0x00, 0xFF, 0xFF, 0xFF, 0xFF, 0x40, 0x00, 0x00, 0x00, 
  0xB4, 0xFC, 0xFF, 0xFF, 0x08, 0x00, 0x00, 0x00, 0x14, 0x00, 0x00, 0x00, 
  0x01, 0x00, 0x00, 0x00, 0x80, 0xFF, 0xFF, 0xFF, 0xFF, 0xFF, 0xFF, 0xFF, 
  0x00, 0x00, 0x00, 0x00, 0x01, 0x00, 0x00, 0x00, 0x70, 0x89, 0x05, 0x3C, 
  0x3D, 0x00, 0x00, 0x00, 0x6D, 0x6F, 0x64, 0x65, 0x6C, 0x2F, 0x64, 0x65, 
  0x6E, 0x73, 0x65, 0x5F, 0x30, 0x2F, 0x4D, 0x61, 0x74, 0x4D, 0x75, 0x6C, 
  0x3B, 0x6D, 0x6F, 0x64, 0x65, 0x6C, 0x2F, 0x64, 0x65, 0x6E, 0x73, 0x65, 
  0x5F, 0x30, 0x2F, 0x52, 0x65, 0x6C, 0x75, 0x3B, 0x6D, 0x6F, 0x64, 0x65, 
  0x6C, 0x2F, 0x64, 0x65, 0x6E, 0x73, 0x65, 0x5F, 0x30, 0x2F, 0x42, 0x69, 
  0x61, 0x73, 0x41, 0x64, 0x64, 0x00, 0x00, 0x00, 0x02, 0x00, 0x00, 0x00, 
  0x01, 0x00, 0x00, 0x00, 0x40, 0x00, 0x00, 0x00, 0xEE, 0xFD, 0xFF, 0xFF, 
  0x00, 0x00, 0x00, 0x01, 0x14, 0x00, 0x00, 0x00, 0x34, 0x00, 0x00, 0x00, 
  0x07, 0x00, 0x00, 0x00, 0x00, 0x00, 0x00, 0x09, 0x44, 0x00, 0x00, 0x00, 
  0x44, 0xFD, 0xFF, 0xFF, 0x08, 0x00, 0x00, 0x00, 0x14, 0x00, 0x00, 0x00, 
  0x01, 0x00, 0x00, 0x00, 0x00, 0x00, 0x00, 0x00, 0x00, 0x00, 0x00, 0x00, 
  0x00, 0x00, 0x00, 0x00, 0x01, 0x00, 0x00, 0x00, 0xF9, 0xCE, 0xB0, 0x3B, 
  0x14, 0x00, 0x00, 0x00, 0x6D, 0x6F, 0x64, 0x65, 0x6C, 0x2F, 0x64, 0x65, 
  0x6E, 0x73, 0x65, 0x5F, 0x30, 0x2F, 0x4D, 0x61, 0x74, 0x4D, 0x75, 0x6C, 
  0x00, 0x00, 0x00, 0x00, 0x02, 0x00, 0x00, 0x00, 0x40, 0x00, 0x00, 0x00, 
  0x23, 0x00, 0x00, 0x00, 0x56, 0xFE, 0xFF, 0xFF, 0x00, 0x00, 0x00, 0x01, 
  0x14, 0x00, 0x00, 0x00, 0x30, 0x00, 0x00, 0x00, 0x06, 0x00, 0x00, 0x00, 
  0x00, 0x00, 0x00, 0x02, 0x50, 0x00, 0x00, 0x00, 0xAC, 0xFD, 0xFF, 0xFF, 
  0x08, 0x00, 0x00, 0x00, 0x10, 0x00, 0x00, 0x00, 0x01, 0x00, 0x00, 0x00, 
  0x00, 0x00, 0x00, 0x00, 0x00, 0x00, 0x00, 0x00, 0x01, 0x00, 0x00, 0x00, 
  0x6B, 0x88, 0x1D, 0x38, 0x24, 0x00, 0x00, 0x00, 0x6D, 0x6F, 0x64, 0x65, 
  0x6C, 0x2F, 0x64, 0x65, 0x6E, 0x73, 0x65, 0x5F, 0x30, 0x2F, 0x42, 0x69, 
  0x61, 0x73, 0x41, 0x64, 0x64, 0x2F, 0x52, 0x65, 0x61, 0x64, 0x56, 0x61, 
  0x72, 0x69, 0x61, 0x62, 0x6C, 0x65, 0x4F, 0x70, 0x00, 0x00, 0x00, 0x00, 
  0x01, 0x00, 0x00, 0x00, 0x40, 0x00, 0x00, 0x00, 0xC6, 0xFE, 0xFF, 0xFF, 
  0x00, 0x00, 0x00, 0x01, 0x14, 0x00, 0x00, 0x00, 0x34, 0x00, 0x00, 0x00, 
  0x05, 0x00, 0x00, 0x00, 0x00, 0x00, 0x00, 0x09, 0x44, 0x00, 0x00, 0x00, 
  0x1C, 0xFE, 0xFF, 0xFF, 0x08, 0x00, 0x00, 0x00, 0x14, 0x00, 0x00, 0x00, 
  0x01, 0x00, 0x00, 0x00, 0x00, 0x00, 0x00, 0x00, 0x00, 0x00, 0x00, 0x00, 
  0x00, 0x00, 0x00, 0x00, 0x01, 0x00, 0x00, 0x00, 0x17, 0x31, 0xB3, 0x3B, 
  0x14, 0x00, 0x00, 0x00, 0x6D, 0x6F, 0x64, 0x65, 0x6C, 0x2F, 0x64, 0x65, 
  0x6E, 0x73, 0x65, 0x5F, 0x31, 0x2F, 0x4D, 0x61, 0x74, 0x4D, 0x75, 0x6C, 
  0x00, 0x00, 0x00, 0x00, 0x02, 0x00, 0x00, 0x00, 0x20, 0x00, 0x00, 0x00, 
  0x40, 0x00, 0x00, 0x00, 0x2E, 0xFF, 0xFF, 0xFF, 0x00, 0x00, 0x00, 0x01, 
  0x14, 0x00, 0x00, 0x00, 0x30, 0x00, 0x00, 0x00, 0x04, 0x00, 0x00, 0x00, 
  0x00, 0x00, 0x00, 0x02, 0x50, 0x00, 0x00, 0x00, 0x84, 0xFE, 0xFF, 0xFF, 
  0x08, 0x00, 0x00, 0x00, 0x10, 0x00, 0x00, 0x00, 0x01, 0x00, 0x00, 0x00, 
  0x00, 0x00, 0x00, 0x00, 0x00, 0x00, 0x00, 0x00, 0x01, 0x00, 0x00, 0x00, 
  0x69, 0xF1, 0x3A, 0x38, 0x24, 0x00, 0x00, 0x00, 0x6D, 0x6F, 0x64, 0x65, 
  0x6C, 0x2F, 0x64, 0x65, 0x6E, 0x73, 0x65, 0x5F, 0x31, 0x2F, 0x42, 0x69, 
  0x61, 0x73, 0x41, 0x64, 0x64, 0x2F, 0x52, 0x65, 0x61, 0x64, 0x56, 0x61, 
  0x72, 0x69, 0x61, 0x62, 0x6C, 0x65, 0x4F, 0x70, 0x00, 0x00, 0x00, 0x00, 
  0x01, 0x00, 0x00, 0x00, 0x20, 0x00, 0x00, 0x00, 0x9E, 0xFF, 0xFF, 0xFF, 
  0x00, 0x00, 0x00, 0x01, 0x14, 0x00, 0x00, 0x00, 0x30, 0x00, 0x00, 0x00, 
  0x03, 0x00, 0x00, 0x00, 0x00, 0x00, 0x00, 0x09, 0x3C, 0x00, 0x00, 0x00, 
  0xF4, 0xFE, 0xFF, 0xFF, 0x08, 0x00, 0x00, 0x00, 0x10, 0x00, 0x00, 0x00, 
  0x01, 0x00, 0x00, 0x00, 0x00, 0x00, 0x00, 0x00, 0x00, 0x00, 0x00, 0x00, 
  0x01, 0x00, 0x00, 0x00, 0x10, 0x30, 0xE9, 0x3B, 0x13, 0x00, 0x00, 0x00, 
  0x6D, 0x6F, 0x64, 0x65, 0x6C, 0x2F, 0x6C, 0x6F, 0x67, 0x69, 0x74, 0x73, 
  0x2F, 0x4D, 0x61, 0x74, 0x4D, 0x75, 0x6C, 0x00, 0x02, 0x00, 0x00, 0x00, 
  0x0B, 0x00, 0x00, 0x00, 0x20, 0x00, 0x00, 0x00, 0x00, 0x00, 0x16, 0x00, 
  0x1C, 0x00, 0x18, 0x00, 0x17, 0x00, 0x10, 0x00, 0x0C, 0x00, 0x08, 0x00, 
  0x00, 0x00, 0x00, 0x00, 0x00, 0x00, 0x07, 0x00, 0x16, 0x00, 0x00, 0x00, 
  0x00, 0x00, 0x00, 0x01, 0x14, 0x00, 0x00, 0x00, 0x30, 0x00, 0x00, 0x00, 
  0x02, 0x00, 0x00, 0x00, 0x00, 0x00, 0x00, 0x02, 0x4C, 0x00, 0x00, 0x00, 
  0x6C, 0xFF, 0xFF, 0xFF, 0x08, 0x00, 0x00, 0x00, 0x10, 0x00, 0x00, 0x00, 
  0x01, 0x00, 0x00, 0x00, 0x00, 0x00, 0x00, 0x00, 0x00, 0x00, 0x00, 0x00, 
  0x01, 0x00, 0x00, 0x00, 0x9C, 0xF4, 0x39, 0x39, 0x23, 0x00, 0x00, 0x00, 
  0x6D, 0x6F, 0x64, 0x65, 0x6C, 0x2F, 0x6C, 0x6F, 0x67, 0x69, 0x74, 0x73, 
  0x2F, 0x42, 0x69, 0x61, 0x73, 0x41, 0x64, 0x64, 0x2F, 0x52, 0x65, 0x61, 
  0x64, 0x56, 0x61, 0x72, 0x69, 0x61, 0x62, 0x6C, 0x65, 0x4F, 0x70, 0x00, 
  0x01, 0x00, 0x00, 0x00, 0x0B, 0x00, 0x00, 0x00, 0x00, 0x00, 0x16, 0x00, 
  0x20, 0x00, 0x1C, 0x00, 0x1B, 0x00, 0x14, 0x00, 0x10, 0x00, 0x0C, 0x00, 
  0x00, 0x00, 0x00, 0x00, 0x08, 0x00, 0x07, 0x00, 0x16, 0x00, 0x00, 0x00, 
  0x00, 0x00, 0x00, 0x01, 0x18, 0x00, 0x00, 0x00, 0x2C, 0x00, 0x00, 0x00, 
  0x48, 0x00, 0x00, 0x00, 0x01, 0x00, 0x00, 0x00, 0x00, 0x00, 0x00, 0x09, 
  0x60, 0x00, 0x00, 0x00, 0x02, 0x00, 0x00, 0x00, 0xFF, 0xFF, 0xFF, 0xFF, 
  0x23, 0x00, 0x00, 0x00, 0x0C, 0x00, 0x0C, 0x00, 0x00, 0x00, 0x00, 0x00, 
  0x08, 0x00, 0x04, 0x00, 0x0C, 0x00, 0x00, 0x00, 0x08, 0x00, 0x00, 0x00, 
  0x10, 0x00, 0x00, 0x00, 0x01, 0x00, 0x00, 0x00, 0xFE, 0xFF, 0xFF, 0xFF, 
  0xFF, 0xFF, 0xFF, 0xFF, 0x01, 0x00, 0x00, 0x00, 0x4A, 0x17, 0xE4, 0x3B, 
  0x1C, 0x00, 0x00, 0x00, 0x73, 0x65, 0x72, 0x76, 0x69, 0x6E, 0x67, 0x5F, 
  0x64, 0x65, 0x66, 0x61, 0x75, 0x6C, 0x74, 0x5F, 0x72, 0x73, 0x73, 0x69, 
  0x5F, 0x69, 0x6E, 0x70, 0x75, 0x74, 0x3A, 0x30, 0x00, 0x00, 0x00, 0x00, 
  0x02, 0x00, 0x00, 0x00, 0x01, 0x00, 0x00, 0x00, 0x23, 0x00, 0x00, 0x00, 
  0x02, 0x00, 0x00, 0x00, 0x24, 0x00, 0x00, 0x00, 0x04, 0x00, 0x00, 0x00, 
  0xF0, 0xFF, 0xFF, 0xFF, 0x19, 0x00, 0x00, 0x00, 0x02, 0x00, 0x00, 0x00, 
  0x00, 0x00, 0x00, 0x19, 0x0C, 0x00, 0x10, 0x00, 0x0F, 0x00, 0x00, 0x00, 
  0x08, 0x00, 0x04, 0x00, 0x0C, 0x00, 0x00, 0x00, 0x09, 0x00, 0x00, 0x00, 
  0x04, 0x00, 0x00, 0x00, 0x00, 0x00, 0x00, 0x09, };

const unsigned int mlp_model_tflite_len = 7496;
