#include <stdint.h>

#include <activity_mlp.h>

const unsigned char activity_mlp_tflite[] = {
  0x1C, 0x00, 0x00, 0x00, 0x54, 0x46, 0x4C, 0x33, 0x14, 0x00, 0x20, 0x00, 
  0x1C, 0x00, 0x18, 0x00, 0x14, 0x00, 0x10, 0x00, 0x0C, 0x00, 0x00, 0x00, 
  0x08, 0x00, 0x04, 0x00, 0x14, 0x00, 0x00, 0x00, 0x1C, 0x00, 0x00, 0x00, 
  0x8C, 0x00, 0x00, 0x00, 0xE4, 0x00, 0x00, 0x00, 0x48, 0x21, 0x00, 0x00, 
  0x58, 0x21, 0x00, 0x00, 0x94, 0x28, 0x00, 0x00, 0x03, 0x00, 0x00, 0x00, 
  0x01, 0x00, 0x00, 0x00, 0x10, 0x00, 0x00, 0x00, 0x00, 0x00, 0x0A, 0x00, 
  0x10, 0x00, 0x0C, 0x00, 0x08, 0x00, 0x04, 0x00, 0x0A, 0x00, 0x00, 0x00, 
  0x0C, 0x00, 0x00, 0x00, 0x1C, 0x00, 0x00, 0x00, 0x38, 0x00, 0x00, 0x00, 
  0x0F, 0x00, 0x00, 0x00, 0x73, 0x65, 0x72, 0x76, 0x69, 0x6E, 0x67, 0x5F, 
  0x64, 0x65, 0x66, 0x61, 0x75, 0x6C, 0x74, 0x00, 0x01, 0x00, 0x00, 0x00, 
  0x04, 0x00, 0x00, 0x00, 0x9C, 0xFF, 0xFF, 0xFF, 0x0A, 0x00, 0x00, 0x00, 
  0x04, 0x00, 0x00, 0x00, 0x07, 0x00, 0x00, 0x00, 0x64, 0x65, 0x6E, 0x73, 
  0x65, 0x5F, 0x32, 0x00, 0x01, 0x00, 0x00, 0x00, 0x04, 0x00, 0x00, 0x00, 
  0x9A, 0xDE, 0xFF, 0xFF, 0x04, 0x00, 0x00, 0x00, 0x07, 0x00, 0x00, 0x00, 
  0x69, 0x6E, 0x70, 0x75, 0x74, 0x5F, 0x31, 0x00, 0x02, 0x00, 0x00, 0x00, 
  0x34, 0x00, 0x00, 0x00, 0x04, 0x00, 0x00, 0x00, 0xDC, 0xFF, 0xFF, 0xFF, 
  0x0D, 0x00, 0x00, 0x00, 0x04, 0x00, 0x00, 0x00, 0x13, 0x00, 0x00, 0x00, 
  0x43, 0x4F, 0x4E, 0x56, 0x45, 0x52, 0x53, 0x49, 0x4F, 0x4E, 0x5F, 0x4D, 
  0x45, 0x54, 0x41, 0x44, 0x41, 0x54, 0x41, 0x00, 0x08, 0x00, 0x0C, 0x00, 
  0x08, 0x00, 0x04, 0x00, 0x08, 0x00, 0x00, 0x00, 0x0C, 0x00, 0x00, 0x00, 
  0x04, 0x00, 0x00, 0x00, 0x13, 0x00, 0x00, 0x00, 0x6D, 0x69, 0x6E, 0x5F, 
  0x72, 0x75, 0x6E, 0x74, 0x69, 0x6D, 0x65, 0x5F, 0x76, 0x65, 0x72, 0x73, 
  0x69, 0x6F, 0x6E, 0x00, 0x0E, 0x00, 0x00, 0x00, 0x60, 0x20, 0x00, 0x00, 
  0x58, 0x20, 0x00, 0x00, 0x3C, 0x20, 0x00, 0x00, 0x6C, 0x1F, 0x00, 0x00, 
  0x5C, 0x1E, 0x00, 0x00, 0x4C, 0x0E, 0x00, 0x00, 0x3C, 0x0D, 0x00, 0x00, 
  0xAC, 0x00, 0x00, 0x00, 0xA4, 0x00, 0x00, 0x00, 0x9C, 0x00, 0x00, 0x00, 
  0x94, 0x00, 0x00, 0x00, 0x8C, 0x00, 0x00, 0x00, 0x6C, 0x00, 0x00, 0x00, 
  0x04, 0x00, 0x00, 0x00, 0x46, 0xDF, 0xFF, 0xFF, 0x04, 0x00, 0x00, 0x00, 
  0x58, 0x00, 0x00, 0x00, 0x0C, 0x00, 0x00, 0x00, 0x08, 0x00, 0x0E, 0x00, 
  0x08, 0x00, 0x04, 0x00, 0x08, 0x00, 0x00, 0x00, 0x10, 0x00, 0x00, 0x00, 
  0x28, 0x00, 0x00, 0x00, 0x00, 0x00, 0x06, 0x00, 0x08, 0x00, 0x04, 0x00, 
  0x06, 0x00, 0x00, 0x00, 0x04, 0x00, 0x00, 0x00, 0x01, 0x00, 0x00, 0x00, 
  0xEB, 0x03, 0x00, 0x00, 0x00, 0x00, 0x0A, 0x00, 0x10, 0x00, 0x0C, 0x00, 
  0x08, 0x00, 0x04, 0x00, 0x0A, 0x00, 0x00, 0x00, 0x02, 0x00, 0x00, 0x00, 
  0x02, 0x00, 0x00, 0x00, 0x04, 0x00, 0x00, 0x00, 0x06, 0x00, 0x00, 0x00, 
  0x32, 0x2E, 0x31, 0x33, 0x2E, 0x30, 0x00, 0x00, 0xAA, 0xDF, 0xFF, 0xFF, 
  0x04, 0x00, 0x00, 0x00, 0x10, 0x00, 0x00, 0x00, 0x31, 0x2E, 0x31, 0x34, 
  0x2E, 0x30, 0x00, 0x00, 0x00, 0x00, 0x00, 0x00, 0x00, 0x00, 0x00, 0x00, 
  0x94, 0xDF, 0xFF, 0xFF, 0x98, 0xDF, 0xFF, 0xFF, 0x9C, 0xDF, 0xFF, 0xFF, 
  0xA0, 0xDF, 0xFF, 0xFF, 0xD6, 0xDF, 0xFF, 0xFF, 0x04, 0x00, 0x00, 0x00, 
  0x80, 0x0C, 0x00, 0x00, 0x40, 0xB7, 0x21, 0xB6, 0x21, 0xE8, 0xD3, 0x1C, 
  0xC2, 0x33, 0xDA, 0xD0, 0x14, 0xE7, 0x96, 0xFC, 0x28, 0xC0, 0x1A, 0xDC, 
  0xBA, 0x17, 0xAF, 0x3A, 0xB7, 0xC4, 0xB1, 0x1C, 0xD5, 0x06, 0xFA, 0x89, 
  0xE3, 0x27, 0x28, 0xB0, 0xF0, 0xBD, 0xF5, 0x0D, 0xBA, 0x22, 0x31, 0xDF, 
  0xD1, 0xD8, 0x22, 0x0B, 0x13, 0xD8, 0xD5, 0xB5, 0xD7, 0x35, 0x4E, 0x30, 
  0x3E, 0xED, 0xB8, 0x11, 0x13, 0xFD, 0x10, 0xF2, 0xB2, 0xE0, 0xD9, 0xDA, 
  0xD8, 0xB0, 0xC4, 0xD6, 0xE5, 0xC9, 0x17, 0xCA, 0xB7, 0x10, 0x2B, 0xDC, 
  0x0D, 0x25, 0xF8, 0x05, 0x22, 0xDE, 0x03, 0xDC, 0xEC, 0x43, 0xC5, 0x45, 
  0x09, 0x26, 0xE6, 0xFE, 0xAA, 0xEE, 0x21, 0x27, 0xD2, 0xF8, 0xF9, 0x48, 
  0x2D, 0xF5, 0xEF, 0x17, 0xDF, 0x0C, 0x16, 0x17, 0x06, 0xEC, 0x0F, 0xE2, 
  0xEF, 0xBD, 0xD1, 0xE4, 0x0A, 0x39, 0x1E, 0x4A, 0x1D, 0x2F, 0xDD, 0xFC, 
  0xD5, 0xCF, 0xB0, 0xCD, 0xFC, 0xD7, 0x27, 0x37, 0x2E, 0x45, 0x33, 0x12, 
  0x08, 0xE0, 0xAD, 0xD0, 0xE6, 0xF8, 0x34, 0x25, 0x18, 0xE0, 0xCB, 0xC7, 
  0x02, 0x12, 0xDF, 0xCB, 0xFC, 0x09, 0x01, 0xDD, 0x2C, 0x0D, 0xCC, 0xE9, 
  0x11, 0xF2, 0xEC, 0xFB, 0x17, 0x14, 0xE7, 0xFA, 0x2D, 0xCF, 0x2A, 0x07, 
  0xFD, 0xC6, 0xEC, 0x12, 0x10, 0xF7, 0x05, 0x0C, 0x41, 0xDE, 0xE7, 0x30, 
  0xF0, 0xEC, 0x22, 0x32, 0xD8, 0x02, 0xD2, 0x36, 0xFC, 0x0A, 0x54, 0x13, 
  0xD3, 0xA0, 0x07, 0xE5, 0xC0, 0xC1, 0xB2, 0x05, 0x0F, 0xCE, 0xE1, 0xDF, 
  0x04, 0xD0, 0x1A, 0xC5, 0xDF, 0xDB, 0xE1, 0xFD, 0xD0, 0xCF, 0xC9, 0xF1, 
  0xFD, 0x0A, 0xED, 0x4E, 0xE1, 0xE0, 0x17, 0x09, 0xFB, 0x3F, 0x0B, 0x1B, 
  0x16, 0x48, 0xB4, 0xC3, 0x43, 0x44, 0x4F, 0xF0, 0x26, 0xFF, 0x37, 0x0C, 
  0x45, 0xFE, 0xE3, 0xEA, 0x11, 0x22, 0x1B, 0x3F, 0xED, 0xE4, 0x3A, 0x1F, 
  0x40, 0xF5, 0x61, 0xD0, 0x19, 0x28, 0x36, 0x20, 0xDA, 0x17, 0x63, 0x1E, 
  0xE7, 0x5C, 0x11, 0x37, 0x2E, 0xF0, 0x33, 0x12, 0x1F, 0x0B, 0xEA, 0x1E, 
  0xF5, 0xDF, 0x1B, 0x0D, 0x41, 0xC2, 0x27, 0x14, 0xF5, 0x20, 0xC2, 0x46, 
  0xB6, 0xD8, 0x26, 0xD0, 0x02, 0xE0, 0xDF, 0x00, 0xED, 0x24, 0xC9, 0x1C, 
  0x00, 0x14, 0xF5, 0x49, 0xD7, 0x48, 0xB0, 0x2F, 0x19, 0x06, 0x16, 0xC2, 
  0x03, 0x2B, 0x22, 0xEA, 0xCC, 0x31, 0x25, 0xA7, 0x1D, 0x15, 0xD6, 0xF6, 
  0xF4, 0xA0, 0x2D, 0x2F, 0xF5, 0x36, 0xEE, 0xD6, 0x50, 0xE4, 0xD3, 0x20, 
  0xEB, 0xD4, 0x15, 0xB1, 0x12, 0xD4, 0x32, 0xF4, 0xDB, 0xEC, 0x1E, 0xDD, 
  0x03, 0xF3, 0xDD, 0x44, 0x29, 0xFB, 0xD8, 0x14, 0x15, 0x11, 0x16, 0x23, 
  0x03, 0x20, 0x27, 0xFC, 0x43, 0xFA, 0x2C, 0x3D, 0xCB, 0x0D, 0x29, 0x1E, 
  0xEE, 0xE4, 0x11, 0x34, 0x18, 0x1B, 0xF1, 0x39, 0x48, 0x2D, 0x4A, 0x03, 
  0xDA, 0xF4, 0xF7, 0x05, 0x1B, 0xCD, 0x22, 0xC7, 0x0D, 0xF6, 0xE6, 0x0A, 
  0x27, 0xEB, 0xC3, 0x3D, 0x44, 0xCD, 0x39, 0x0A, 0x3A, 0x0B, 0x0D, 0x41, 
  0x0A, 0x01, 0x20, 0xEE, 0x26, 0x31, 0x26, 0xFF, 0x07, 0x1C, 0x14, 0x54, 
  0xFD, 0x26, 0xEE, 0x47, 0xFB, 0x1C, 0xDF, 0x16, 0x3D, 0x07, 0xC9, 0x39, 
  0x10, 0xF6, 0x43, 0xDF, 0x18, 0x22, 0xC9, 0x27, 0xFA, 0xD9, 0xE5, 0x54, 
  0xFE, 0x30, 0xEE, 0x06, 0x03, 0x20, 0xFF, 0xCC, 0xDB, 0x30, 0x43, 0xD8, 
  0x0A, 0x4F, 0xB2, 0x2C, 0xE0, 0x31, 0x3D, 0x07, 0x27, 0xC2, 0xDB, 0x0E, 
  0xDA, 0x2B, 0x0F, 0x35, 0x21, 0x11, 0xFC, 0x45, 0x0C, 0x50, 0xF0, 0xC3, 
  0xEB, 0x34, 0xC2, 0x0F, 0xC6, 0x62, 0x22, 0xFE, 0xAD, 0xDF, 0x86, 0xD8, 
  0x09, 0x2B, 0x09, 0xE8, 0xB8, 0x37, 0x08, 0xCD, 0x27, 0x0E, 0xC5, 0xCB, 
  0x2C, 0xD4, 0x02, 0x1B, 0x18, 0xBF, 0xC8, 0x1B, 0xC0, 0x0B, 0x05, 0xCA, 
  0xBF, 0x47, 0xE2, 0xEA, 0x03, 0xCD, 0x2E, 0xC1, 0x05, 0x0A, 0x0F, 0x0F, 
  0x12, 0xE5, 0xFF, 0x36, 0x22, 0xE2, 0x2C, 0xD0, 0xDA, 0xD0, 0x3C, 0x32, 
  0xD9, 0x6F, 0x10, 0x2A, 0x1F, 0x21, 0xF2, 0x97, 0x47, 0x20, 0x0A, 0x20, 
  0xE3, 0xD6, 0x23, 0xBC, 0x05, 0xE4, 0xEA, 0xE5, 0xFD, 0xA9, 0x43, 0xB7, 
  0xB4, 0x22, 0x14, 0x09, 0xFE, 0x0E, 0xFE, 0x53, 0x27, 0xC4, 0x18, 0x37, 
  0xAB, 0x2E, 0x02, 0xF9, 0x33, 0x0F, 0x06, 0xFA, 0x19, 0x20, 0x03, 0x4C, 
  0x2D, 0xFE, 0x18, 0x0C, 0xFE, 0x05, 0x0E, 0x34, 0x5C, 0x0E, 0x0A, 0x00, 
  0xC0, 0x35, 0x4A, 0x2E, 0xC7, 0xF8, 0x54, 0x4B, 0x00, 0xEA, 0x23, 0x08, 
  0xB9, 0x7F, 0xE1, 0xE7, 0x16, 0x09, 0xDC, 0xCD, 0x3D, 0xD0, 0xF6, 0xCE, 
  0xF8, 0xCA, 0x21, 0x24, 0x0B, 0x27, 0x07, 0xA5, 0x34, 0xDD, 0xE2, 0xCF, 
  0x46, 0xB3, 0xD1, 0xD5, 0xD3, 0x2E, 0x22, 0xCF, 0x2E, 0xCF, 0x07, 0x23, 
  0x05, 0x2C, 0xCA, 0xD7, 0x2F, 0xC7, 0xF8, 0xFA, 0xF6, 0xDA, 0xC9, 0x19, 
  0x3E, 0xDB, 0x32, 0x28, 0xDC, 0xE8, 0xD5, 0xBA, 0x07, 0xCA, 0xE2, 0xDD, 
  0xE9, 0xCE, 0x1D, 0xE5, 0xA9, 0x3D, 0x02, 0x0F, 0xDA, 0xEA, 0x43, 0x0D, 
  0xE5, 0xC5, 0xEA, 0x3A, 0xEC, 0xF3, 0x07, 0x0A, 0xD9, 0xEF, 0x0F, 0x26, 
  0x13, 0xB0, 0x08, 0x0A, 0x38, 0xFE, 0xE9, 0xD8, 0xEA, 0xD0, 0xFB, 0x30, 
  0x34, 0xA2, 0xE3, 0x2C, 0xB7, 0x25, 0x29, 0xB0, 0x0E, 0xDC, 0xF4, 0xC9, 
  0x20, 0xC4, 0x09, 0xCC, 0xAD, 0x45, 0xBA, 0x0D, 0xC3, 0xFF, 0xF2, 0xE3, 
  0xE1, 0x0F, 0xB9, 0x13, 0xF9, 0xB5, 0xF4, 0xBC, 0xE9, 0x26, 0xDE, 0xAF, 
  0xB7, 0xE0, 0xF2, 0x0C, 0xDB, 0x2F, 0xDC, 0x2C, 0x0D, 0x46, 0xCE, 0xE8, 
  0x21, 0xAA, 0xC9, 0x03, 0xF5, 0xFC, 0xDE, 0xF6, 0x1B, 0x24, 0xD3, 0x8F, 
  0xAC, 0xDE, 0xE3, 0x07, 0xBE, 0x52, 0xE1, 0x1A, 0x09, 0x15, 0x05, 0xD6, 
  0x19, 0x44, 0x18, 0xF3, 0x1D, 0x28, 0x36, 0x44, 0x2C, 0x06, 0xAD, 0x01, 
  0x08, 0x09, 0x3F, 0x05, 0x00, 0xAF, 0x12, 0xE0, 0x02, 0x07, 0x31, 0xEF, 
  0x33, 0x3C, 0xEF, 0x1D, 0x21, 0x1C, 0xF7, 0xC4, 0x1E, 0x0A, 0x31, 0x22, 
  0x54, 0xB5, 0x19, 0xD3, 0x93, 0xA4, 0xD5, 0x30, 0x00, 0x59, 0x00, 0xDB, 
  0x27, 0xE7, 0xEC, 0xEE, 0x3A, 0x12, 0x2B, 0x1E, 0xE9, 0x27, 0x56, 0x49, 
  0x68, 0x3D, 0xB5, 0xC8, 0xCD, 0x42, 0x4D, 0x3E, 0x52, 0xE8, 0xE9, 0x17, 
  0x1A, 0x0B, 0x19, 0xF0, 0xF8, 0x44, 0x13, 0x4E, 0x27, 0x0F, 0xC5, 0xB0, 
  0xDD, 0xC9, 0xB8, 0xDA, 0xB4, 0x08, 0xFD, 0x36, 0x3B, 0x1C, 0xF5, 0x24, 
  0xE4, 0xF7, 0xFA, 0x25, 0xFC, 0x3E, 0x2C, 0x1D, 0xEB, 0x26, 0x0A, 0x0E, 
  0xE3, 0xD2, 0xB8, 0xD7, 0x4B, 0x40, 0x12, 0xD0, 0x1A, 0x29, 0x1A, 0xF5, 
  0xC0, 0xB5, 0xA9, 0x14, 0xE9, 0xCA, 0xFA, 0xC8, 0x22, 0xCD, 0x01, 0x28, 
  0x46, 0x2E, 0x40, 0x31, 0xFE, 0x0F, 0x07, 0x04, 0x2D, 0x10, 0x2F, 0x22, 
  0x17, 0xAF, 0xF9, 0xDD, 0x19, 0xF0, 0xD2, 0xFB, 0xE4, 0x19, 0xE4, 0xDC, 
  0x00, 0xD2, 0xFF, 0x14, 0xE9, 0x1C, 0xF8, 0x15, 0x09, 0xE6, 0xCD, 0xF1, 
  0xD7, 0x11, 0x19, 0x25, 0x29, 0x3D, 0x23, 0x03, 0xDC, 0xAF, 0xE1, 0x29, 
  0x24, 0xF3, 0xE5, 0xED, 0x46, 0xE0, 0x33, 0xFE, 0xB2, 0x08, 0x20, 0xD9, 
  0xE6, 0x40, 0x33, 0x40, 0x3F, 0x2C, 0x05, 0xCE, 0xF7, 0xCB, 0x1B, 0xFA, 
  0x1C, 0x01, 0x0E, 0xEF, 0xC5, 0xF6, 0xCB, 0xDE, 0x16, 0xA0, 0xF0, 0x08, 
  0xE8, 0x03, 0xC0, 0xDE, 0xF9, 0x1E, 0xA2, 0x20, 0xCC, 0x49, 0xDF, 0xB1, 
  0x0D, 0x3D, 0xEC, 0xCD, 0x14, 0x02, 0xFF, 0xCE, 0xD8, 0x09, 0xF7, 0xF5, 
  0x37, 0xC9, 0x18, 0xCE, 0x37, 0x21, 0x54, 0xA2, 0x29, 0x16, 0xAE, 0x34, 
  0xF1, 0x57, 0xDB, 0xC8, 0x3A, 0x39, 0xB6, 0x26, 0x49, 0xD9, 0xA5, 0xC0, 
  0xD9, 0xE1, 0x05, 0x18, 0xE5, 0xE2, 0x44, 0x43, 0x1B, 0x54, 0x0C, 0x2B, 
  0xDC, 0x28, 0x2E, 0x37, 0x45, 0xE9, 0x2B, 0x15, 0xC6, 0xE1, 0xE1, 0xBC, 
  0xD7, 0xE3, 0xD8, 0x22, 0x0F, 0x3C, 0xCE, 0xB9, 0xC4, 0x1A, 0x1D, 0xED, 
  0x15, 0x27, 0x27, 0xEB, 0x4D, 0x0B, 0x17, 0xFF, 0x45, 0xC5, 0xC5, 0xFB, 
  0x1A, 0xFA, 0xE3, 0xDD, 0xE9, 0xEA, 0x21, 0x27, 0xCF, 0xDA, 0xAC, 0x12, 
  0xD6, 0xFF, 0x3D, 0x23, 0x3F, 0x0D, 0x09, 0xD6, 0xCC, 0xF1, 0xC0, 0x24, 
  0x29, 0x11, 0x5C, 0x1E, 0xEC, 0x20, 0xC7, 0xEB, 0xCB, 0x06, 0xE6, 0xFA, 
  0x0A, 0x21, 0x44, 0x3B, 0x2F, 0xE6, 0xD4, 0xBD, 0xB8, 0xCD, 0x36, 0x4A, 
  0xF7, 0x09, 0x20, 0x21, 0xBB, 0x3D, 0xE9, 0xC7, 0x33, 0xE6, 0x24, 0x1B, 
  0xAD, 0x36, 0xBF, 0xF5, 0x29, 0xEF, 0xB5, 0xC7, 0x0F, 0xE5, 0xDA, 0xFB, 
  0xB5, 0xAC, 0x22, 0xFA, 0xE6, 0xDD, 0x36, 0xCB, 0xB7, 0x3B, 0xF3, 0xC9, 
  0xF9, 0x0C, 0x2C, 0xC2, 0xDA, 0x08, 0x0E, 0xE1, 0x13, 0x0F, 0xC8, 0x25, 
  0xFA, 0x2C, 0xEF, 0x43, 0xDF, 0x3C, 0x12, 0xDB, 0x25, 0x10, 0x2D, 0xF7, 
  0x28, 0xF5, 0x55, 0x4B, 0xF7, 0x58, 0x36, 0x05, 0xFC, 0x35, 0x26, 0x01, 
  0x13, 0x38, 0x29, 0x0F, 0x55, 0x7E, 0xEE, 0xFA, 0x38, 0xC8, 0xFF, 0x15, 
  0x11, 0x13, 0xDC, 0x03, 0xDD, 0x41, 0xCF, 0x0C, 0xDF, 0xF5, 0x33, 0xC6, 
  0xBF, 0x41, 0xEB, 0xC9, 0x52, 0xD9, 0xCB, 0xEF, 0x2A, 0xD2, 0xEB, 0x0E, 
  0x01, 0xEF, 0xD5, 0x0D, 0x48, 0x21, 0x31, 0xB1, 0x36, 0x26, 0xF4, 0xE8, 
  0x00, 0x37, 0xDA, 0xE3, 0xE6, 0x16, 0xFA, 0xD3, 0xF9, 0x17, 0xA3, 0x1A, 
  0xBE, 0x14, 0x3C, 0xB6, 0xC8, 0x10, 0x02, 0x16, 0xC0, 0x1B, 0xF4, 0x00, 
  0xAE, 0x43, 0xCF, 0xBE, 0xFF, 0x05, 0xC2, 0xCD, 0xA6, 0xCC, 0x3F, 0xC5, 
  0xED, 0xDE, 0x1B, 0x01, 0xED, 0xC4, 0x56, 0xFD, 0xA6, 0x3B, 0x28, 0xDF, 
  0xB2, 0x01, 0x2F, 0xE7, 0xD1, 0xFF, 0xE1, 0xDF, 0x09, 0x08, 0x43, 0x0E, 
  0xCD, 0x57, 0x0F, 0xF3, 0x1E, 0xE3, 0x48, 0xB9, 0x34, 0x90, 0x4C, 0x05, 
  0xC2, 0x4C, 0xE2, 0xD7, 0x18, 0x38, 0xCC, 0x2C, 0xFA, 0xE6, 0x49, 0xEE, 
  0x02, 0x2D, 0xEA, 0xF2, 0xD2, 0x4D, 0xC1, 0x29, 0xFC, 0xE6, 0x15, 0xF7, 
  0x1B, 0xE9, 0x00, 0x27, 0x91, 0x36, 0x16, 0xF0, 0x06, 0xB9, 0x52, 0xF0, 
  0x21, 0x25, 0x17, 0x15, 0xF4, 0x15, 0x0E, 0x12, 0xAF, 0x42, 0x2D, 0xC5, 
  0x13, 0x43, 0xD7, 0x2B, 0xE2, 0x12, 0x28, 0x1C, 0x2A, 0x17, 0xE3, 0x51, 
  0x28, 0xDB, 0xD6, 0x00, 0xF6, 0x3C, 0xD8, 0xF5, 0xFC, 0xF4, 0xF3, 0x02, 
  0x0D, 0x0F, 0xB8, 0x34, 0xD6, 0x11, 0x0B, 0xF0, 0x19, 0xAE, 0x42, 0xFB, 
  0x35, 0xD9, 0x28, 0x27, 0x00, 0x27, 0xDD, 0xF4, 0xEE, 0xFB, 0x0F, 0x28, 
  0xCD, 0xFA, 0x1E, 0x06, 0x24, 0x1D, 0xCE, 0xC0, 0x28, 0x0A, 0xF5, 0x18, 
  0x0E, 0x08, 0x40, 0x27, 0x02, 0x47, 0xD7, 0xC4, 0x2E, 0xDC, 0xFC, 0x14, 
  0x1F, 0xA4, 0x37, 0xF9, 0x30, 0x23, 0xCE, 0xD2, 0x38, 0x27, 0x15, 0x12, 
  0xAE, 0xB7, 0xD2, 0xFB, 0xD9, 0x44, 0x34, 0x11, 0xF7, 0x53, 0xD2, 0xD4, 
  0xD4, 0x13, 0xDD, 0xE9, 0x1D, 0xE9, 0x3D, 0xC9, 0x41, 0x1C, 0x3C, 0x51, 
  0x42, 0x1C, 0x2D, 0x64, 0x1A, 0xE7, 0x15, 0xDF, 0x0D, 0xEE, 0x13, 0x1A, 
  0x28, 0x33, 0xCF, 0xCD, 0xEE, 0x21, 0xAE, 0xF3, 0x34, 0xD7, 0x44, 0xDF, 
  0xDD, 0x30, 0x29, 0x02, 0x31, 0xB1, 0x2B, 0x11, 0xD6, 0xD6, 0xD5, 0x04, 
  0xD7, 0xD6, 0x19, 0xF4, 0xED, 0x47, 0xDB, 0x32, 0xF7, 0xE7, 0xA3, 0xCF, 
  0xFE, 0x1B, 0xB5, 0xE0, 0xDC, 0xF2, 0xD5, 0xFA, 0x17, 0xD0, 0xDD, 0xD4, 
  0x04, 0x41, 0xE0, 0xD1, 0x14, 0x61, 0x17, 0x3E, 0xFE, 0x37, 0xDC, 0x0B, 
  0x1F, 0xD0, 0x45, 0xCB, 0x17, 0x4A, 0x2F, 0x2E, 0xDB, 0x0E, 0xDD, 0xE9, 
  0xA9, 0xA8, 0xD9, 0xB2, 0x0D, 0x1C, 0xCA, 0xDD, 0xE7, 0xC9, 0xB7, 0xBD, 
  0xFF, 0x38, 0x0C, 0x30, 0x1B, 0x4C, 0xF1, 0xDF, 0xC3, 0x2C, 0xE9, 0xD5, 
  0x17, 0x0A, 0x1C, 0xFE, 0xCE, 0x1B, 0x13, 0xE0, 0x29, 0xF2, 0xEB, 0x45, 
  0xE2, 0x0F, 0x44, 0x0F, 0x3D, 0x23, 0xF6, 0x10, 0x1D, 0x33, 0x0C, 0xC6, 
  0x34, 0x2E, 0xAC, 0xCD, 0x46, 0x26, 0xD4, 0xCD, 0x40, 0x14, 0xDD, 0x0D, 
  0xCF, 0x43, 0xB3, 0x1A, 0x45, 0x2C, 0x17, 0xD8, 0xF2, 0x5C, 0x32, 0x22, 
  0x03, 0xF7, 0x36, 0x34, 0xC7, 0x10, 0x14, 0x13, 0x29, 0xFF, 0xE0, 0x4A, 
  0xD1, 0xF1, 0xDB, 0x26, 0xE5, 0x1F, 0x28, 0xEA, 0xD7, 0xE1, 0xAD, 0xC0, 
  0xBF, 0xEF, 0xC6, 0xB0, 0x0F, 0xB8, 0xB7, 0xFD, 0x1C, 0xB6, 0x18, 0xC5, 
  0xF3, 0xDB, 0xE3, 0x14, 0xD6, 0x30, 0xA5, 0xF6, 0xB1, 0xFA, 0xCA, 0xD5, 
  0x40, 0x09, 0x23, 0x20, 0xD3, 0xDF, 0x10, 0x4B, 0x1C, 0x0E, 0x4E, 0x56, 
  0xF0, 0xFA, 0xEB, 0x96, 0xCA, 0xEC, 0x0B, 0xFF, 0xF6, 0x1B, 0xF4, 0xE1, 
  0x11, 0xA7, 0xCB, 0xB4, 0x4A, 0x0A, 0x3F, 0x2B, 0xFC, 0x43, 0xFC, 0xD5, 
  0x3F, 0x3A, 0xEB, 0xFA, 0xFB, 0xC1, 0xDF, 0xD8, 0xE9, 0x2B, 0xC7, 0x18, 
  0x14, 0xF4, 0x27, 0xD2, 0xED, 0xEE, 0x9B, 0x3F, 0xC7, 0xD8, 0x69, 0xB4, 
  0xE7, 0x2C, 0xE2, 0xDB, 0xE2, 0x45, 0x97, 0x45, 0xE8, 0xBB, 0x23, 0xD1, 
  0x22, 0x2A, 0xA1, 0x3C, 0x07, 0x33, 0x39, 0xFB, 0x24, 0x32, 0x1C, 0xDC, 
  0xF8, 0x1C, 0x14, 0x3C, 0x10, 0x05, 0x1A, 0xD1, 0x6A, 0xFB, 0x18, 0x18, 
  0x24, 0x12, 0x3A, 0xFD, 0x02, 0x0B, 0xE0, 0xDC, 0x22, 0xFA, 0x05, 0xEB, 
  0x0A, 0xE5, 0x38, 0x0E, 0x24, 0x18, 0x10, 0xD6, 0xB6, 0xD4, 0xF4, 0x18, 
  0x0F, 0x2E, 0x08, 0x2A, 0x0F, 0x01, 0xD5, 0xBA, 0xD9, 0x23, 0x3C, 0x39, 
  0x2E, 0xE6, 0xCB, 0x33, 0xCB, 0xC6, 0xCA, 0xDD, 0xE7, 0x37, 0x28, 0x23, 
  0x34, 0x05, 0xCB, 0xB6, 0x0E, 0xE6, 0xD0, 0xEA, 0x0A, 0x22, 0x49, 0x46, 
  0x37, 0x32, 0x2F, 0x10, 0xD9, 0xFE, 0xF1, 0xC4, 0xC0, 0xC4, 0xEF, 0x05, 
  0xCF, 0xCF, 0xD5, 0xF5, 0xFB, 0x62, 0x4D, 0x25, 0xDD, 0xD6, 0xDF, 0xC8, 
  0x20, 0x32, 0x25, 0xF2, 0xFE, 0x50, 0x24, 0xFF, 0x0E, 0xD6, 0x09, 0xED, 
  0x14, 0x07, 0x11, 0xD6, 0x20, 0x13, 0xED, 0xE4, 0xD2, 0x3A, 0x04, 0x34, 
  0xE1, 0xEF, 0x1B, 0x23, 0x17, 0xF9, 0xE7, 0x06, 0x41, 0xF8, 0x3F, 0xEA, 
  0xEB, 0x25, 0x12, 0x46, 0x33, 0xD9, 0x10, 0x43, 0x42, 0x1B, 0xF2, 0x42, 
  0xFF, 0x5A, 0x00, 0x1E, 0x0F, 0x05, 0x3C, 0x07, 0xEE, 0x44, 0x13, 0x33, 
  0x09, 0x10, 0x37, 0x21, 0x50, 0xBC, 0x33, 0x40, 0xDD, 0x34, 0x2C, 0x2A, 
  0xE5, 0xCA, 0xC6, 0xDE, 0x28, 0x3E, 0xF9, 0x3F, 0x3F, 0x47, 0x16, 0xD7, 
  0x1E, 0x04, 0xF7, 0xCE, 0xF6, 0xE9, 0x02, 0xF8, 0x26, 0x16, 0x26, 0x0D, 
  0xC9, 0xDB, 0xF5, 0xF7, 0xDE, 0xF4, 0x5B, 0x2A, 0xD9, 0x3A, 0x32, 0x04, 
  0xEC, 0xDC, 0x23, 0xF5, 0x1A, 0x21, 0x12, 0xD2, 0xAF, 0xD1, 0xE5, 0x11, 
  0x16, 0x32, 0x26, 0x40, 0x2B, 0xF3, 0xD5, 0xEB, 0xEB, 0xD4, 0xDC, 0xD1, 
  0xC9, 0xD9, 0x30, 0x24, 0x46, 0x0B, 0xAD, 0xE9, 0x05, 0xE9, 0x1E, 0xFD, 
  0x2E, 0x10, 0xF6, 0x0E, 0xFE, 0x14, 0x4C, 0x3F, 0x44, 0xB4, 0xE7, 0x9C, 
  0xB2, 0x0C, 0x37, 0xF9, 0x67, 0x2C, 0x1F, 0xF2, 0xA5, 0xD2, 0xD7, 0x0B, 
  0x3D, 0x28, 0xC0, 0xBC, 0xAD, 0x21, 0xBA, 0xCE, 0xC1, 0xE5, 0xA6, 0x09, 
  0x22, 0xF1, 0x38, 0x15, 0x1D, 0xE6, 0x4D, 0x00, 0xE6, 0xF0, 0x0F, 0xE6, 
  0xFF, 0xE9, 0x5A, 0x6B, 0xCB, 0xEC, 0xB4, 0x98, 0xCE, 0xD4, 0x16, 0x97, 
  0xC1, 0x08, 0xCB, 0xE0, 0xC2, 0xFB, 0x31, 0xBF, 0xD1, 0xDF, 0xD6, 0x3D, 
  0x22, 0x03, 0x0C, 0x3E, 0x0F, 0x56, 0x1C, 0x68, 0x03, 0x3E, 0x03, 0x2F, 
  0xEC, 0xC6, 0xA7, 0xBE, 0x1A, 0xDE, 0x13, 0xF8, 0xD4, 0xC2, 0xB5, 0x16, 
  0xC0, 0x22, 0x47, 0xDF, 0x0A, 0xEF, 0x0D, 0xE4, 0xF9, 0x18, 0x18, 0x23, 
  0x47, 0xE9, 0x18, 0x20, 0xBB, 0x3E, 0x49, 0xCF, 0x0D, 0x93, 0x05, 0x25, 
  0xF1, 0xD9, 0x48, 0xCA, 0xC7, 0x45, 0x2E, 0xE2, 0x1A, 0xF4, 0xE1, 0x45, 
  0x08, 0x12, 0x06, 0x37, 0x11, 0x31, 0x10, 0xF7, 0x25, 0xCA, 0xD2, 0x5A, 
  0xC4, 0xDC, 0xDD, 0xD2, 0x0A, 0x16, 0xE7, 0x14, 0xC0, 0x1F, 0xDB, 0x14, 
  0xC9, 0xAE, 0x0D, 0xB8, 0xAB, 0x2C, 0xE5, 0xC9, 0xB1, 0x08, 0x32, 0xC2, 
  0xED, 0xB2, 0x1E, 0x0E, 0x2B, 0xD0, 0xCC, 0xFA, 0x99, 0x46, 0xE4, 0x05, 
  0xC5, 0xD9, 0x16, 0xE1, 0x1D, 0xEA, 0xDC, 0xE7, 0xDD, 0x40, 0x0F, 0xD6, 
  0x19, 0xDF, 0xE3, 0x23, 0x2B, 0xE4, 0x17, 0xDE, 0x01, 0xD6, 0x21, 0x24, 
  0xC1, 0x4E, 0xC2, 0x4F, 0xCA, 0x4D, 0x25, 0x09, 0xD1, 0x40, 0x1D, 0x18, 
  0xF1, 0xBD, 0x4D, 0x11, 0xD3, 0x25, 0xD8, 0xBA, 0x2C, 0x19, 0xC1, 0xBE, 
  0x20, 0x1F, 0x0A, 0x1A, 0x0D, 0x0E, 0x1E, 0x17, 0xF9, 0xB5, 0xA7, 0xFD, 
  0x19, 0x22, 0x0A, 0x4F, 0xF8, 0xEC, 0x09, 0xA5, 0xE1, 0x1D, 0xD3, 0x16, 
  0x1D, 0xEE, 0x43, 0x1C, 0xD3, 0xDA, 0xC0, 0xA7, 0x20, 0x1C, 0x44, 0x3C, 
  0x31, 0xF9, 0x16, 0x0C, 0xF3, 0xD1, 0xD0, 0xD4, 0xF3, 0x49, 0x4D, 0x23, 
  0xC0, 0xB1, 0x01, 0xA5, 0xDE, 0xB5, 0xBC, 0xAB, 0xEE, 0xB2, 0xAD, 0x16, 
  0xD2, 0xC1, 0x9A, 0x18, 0x2D, 0xF5, 0x26, 0x48, 0xF9, 0xD4, 0x01, 0xBC, 
  0x29, 0x11, 0x17, 0x11, 0xDD, 0xFD, 0xBB, 0x25, 0x30, 0xD5, 0x3F, 0x28, 
  0x25, 0xC2, 0x15, 0xF3, 0x40, 0xCB, 0xED, 0xDA, 0xD8, 0xF0, 0x1E, 0x0C, 
  0x35, 0x1C, 0x0C, 0xC4, 0xD6, 0x35, 0xFF, 0xE0, 0xC6, 0xB8, 0x18, 0x1D, 
  0xF2, 0x06, 0xF7, 0x24, 0xD8, 0xFE, 0xF4, 0x3A, 0xF9, 0x0B, 0x47, 0x21, 
  0x06, 0xED, 0xE0, 0xF3, 0xFA, 0x06, 0x38, 0x0E, 0xD8, 0xED, 0xDF, 0xDA, 
  0x04, 0xDD, 0x41, 0x48, 0x4C, 0x39, 0xB5, 0xA7, 0xDB, 0xFC, 0xFC, 0xFB, 
  0xFA, 0x3D, 0x45, 0xFD, 0x47, 0xF6, 0x00, 0x23, 0x31, 0xF9, 0x18, 0xF7, 
  0xCD, 0xD3, 0xE2, 0x24, 0x0B, 0xD5, 0xF7, 0x1E, 0x23, 0x56, 0xCF, 0x10, 
  0x67, 0x39, 0x0B, 0x08, 0xF8, 0x43, 0xC9, 0x07, 0x36, 0x03, 0xC8, 0x17, 
  0x13, 0x46, 0x18, 0xE6, 0xF3, 0x35, 0x41, 0xC2, 0x34, 0x2B, 0x14, 0xEF, 
  0x21, 0x1C, 0x54, 0xDE, 0xBC, 0x1B, 0xC8, 0xCE, 0xE3, 0xF3, 0xD7, 0x0D, 
  0x0F, 0x1C, 0xDB, 0x1E, 0x0F, 0xFA, 0x08, 0x13, 0xFC, 0xEF, 0xDE, 0x13, 
  0x1B, 0xE1, 0x3B, 0xC1, 0xE4, 0x34, 0xDB, 0x14, 0xE5, 0xA7, 0xBC, 0x11, 
  0x29, 0x1F, 0xD4, 0xD2, 0xD4, 0x24, 0xF2, 0xC7, 0x0F, 0x1F, 0x18, 0xDE, 
  0xFC, 0x24, 0x3B, 0x14, 0xEC, 0x35, 0x10, 0x1A, 0xDA, 0xB9, 0xEB, 0xF5, 
  0x04, 0xB6, 0xB6, 0x18, 0xD0, 0x18, 0xAF, 0x25, 0xA5, 0x02, 0xFA, 0x1D, 
  0xC9, 0xB1, 0x47, 0xB9, 0xDB, 0xFD, 0xEB, 0x06, 0xC3, 0x07, 0x19, 0x0C, 
  0xEB, 0xEF, 0x48, 0xDC, 0x14, 0xBF, 0x4B, 0x21, 0x07, 0x00, 0xE4, 0x06, 
  0x25, 0x1C, 0x12, 0x1E, 0x09, 0xD9, 0x33, 0xFF, 0x20, 0x0F, 0x17, 0xFF, 
  0x35, 0x24, 0x43, 0xF8, 0xF6, 0x42, 0xF3, 0x44, 0xC7, 0xB7, 0xF3, 0xF6, 
  0x3E, 0xA9, 0x16, 0xE7, 0x0F, 0xC2, 0xE3, 0x3B, 0xBC, 0x92, 0xF8, 0xFB, 
  0xD8, 0xFD, 0xE8, 0xDB, 0xE1, 0xBE, 0x0F, 0xEC, 0x39, 0xBD, 0xEB, 0xD6, 
  0x45, 0xC8, 0xDF, 0xF8, 0xE6, 0x08, 0xC9, 0xE8, 0x26, 0x14, 0xC4, 0xFC, 
  0x27, 0xEB, 0x48, 0x46, 0x09, 0x1C, 0xE1, 0x16, 0x29, 0xD1, 0xDE, 0xBD, 
  0xF2, 0xE4, 0x2C, 0xC9, 0xAF, 0x13, 0x2E, 0xE4, 0x33, 0xE8, 0xB1, 0xE5, 
  0x9D, 0x8C, 0x09, 0x33, 0x0F, 0x07, 0xF1, 0x4B, 0x59, 0x56, 0x18, 0x0C, 
  0xF6, 0x34, 0xE4, 0x05, 0x23, 0x35, 0x2B, 0xE6, 0x35, 0xC8, 0x12, 0x02, 
  0x99, 0xA5, 0xED, 0x07, 0xE5, 0x40, 0x1B, 0x0A, 0x0A, 0x31, 0x41, 0x54, 
  0x1B, 0x64, 0x3C, 0x0D, 0xFD, 0xD3, 0x00, 0x44, 0x27, 0x1A, 0x46, 0x0C, 
  0x52, 0x0B, 0xD8, 0xC8, 0xB9, 0x04, 0xC6, 0xCD, 0x17, 0xCC, 0xDA, 0xC0, 
  0xB2, 0xE0, 0x12, 0x05, 0xD3, 0xB4, 0xC7, 0xCA, 0xC7, 0x0F, 0x22, 0x06, 
  0x07, 0x15, 0x1B, 0x0F, 0xEB, 0xEE, 0xD4, 0xE3, 0x2A, 0xC7, 0x2A, 0x2F, 
  0x25, 0x05, 0xC2, 0x49, 0xE8, 0xFA, 0xED, 0x12, 0xCD, 0x30, 0x18, 0xFC, 
  0x3C, 0x0B, 0x0C, 0xC1, 0x53, 0x27, 0x3C, 0x6B, 0xF9, 0x45, 0xF8, 0x61, 
  0x10, 0x29, 0x07, 0xD7, 0x3C, 0x28, 0xE1, 0x1D, 0x31, 0x18, 0xE2, 0x20, 
  0x0D, 0xC4, 0x52, 0x1A, 0x0C, 0xAA, 0xD6, 0x09, 0x08, 0xE0, 0x06, 0x3B, 
  0xF5, 0x04, 0x8C, 0xA6, 0xB3, 0xDC, 0xCC, 0x1A, 0x47, 0x58, 0x1A, 0xDE, 
  0xF5, 0x1A, 0xE8, 0xD6, 0xFD, 0x33, 0x14, 0x53, 0x3E, 0xFF, 0xE8, 0x31, 
  0xF0, 0xF2, 0xAB, 0x90, 0xD7, 0xB8, 0xCD, 0xFF, 0xE0, 0xF6, 0x24, 0xFD, 
  0xEF, 0xB9, 0xC9, 0xD9, 0x0F, 0x4F, 0x5C, 0x47, 0xE8, 0x05, 0x46, 0x19, 
  0x0C, 0x1E, 0x06, 0x06, 0x3E, 0x1C, 0x2A, 0x3B, 0xED, 0x43, 0xD9, 0xDA, 
  0x3F, 0x2D, 0x1F, 0xEC, 0xED, 0xEC, 0x1E, 0x49, 0x08, 0xEC, 0x15, 0x0A, 
  0xC4, 0x16, 0xDA, 0x03, 0xCA, 0x0B, 0x9B, 0x28, 0xDC, 0xEA, 0x3C, 0xEA, 
  0x2E, 0xC6, 0x11, 0xD1, 0xDE, 0x26, 0xDC, 0xD3, 0xC8, 0x09, 0xD9, 0x20, 
  0xF9, 0x29, 0xEC, 0xC6, 0xFE, 0xFE, 0x44, 0x42, 0xFC, 0x0D, 0xDC, 0xCE, 
  0xFF, 0xFE, 0xF8, 0x1B, 0x55, 0x17, 0xF9, 0xCE, 0xBA, 0xCA, 0xE4, 0xD6, 
  0xE0, 0xAF, 0xE1, 0x1B, 0xF9, 0x35, 0x43, 0x4E, 0x08, 0x12, 0xFD, 0x0B, 
  0xC8, 0x33, 0x1F, 0x4E, 0xE6, 0x3B, 0xEB, 0xDE, 0x1A, 0xCD, 0xE1, 0xB0, 
  0x01, 0x29, 0x48, 0x16, 0x46, 0x1A, 0xC6, 0x54, 0x5D, 0x04, 0xFD, 0x3B, 
  0x2A, 0xF2, 0x04, 0x09, 0xD9, 0x43, 0x23, 0x13, 0x1A, 0x14, 0x36, 0xE4, 
  0x40, 0x5F, 0xB1, 0x2C, 0x55, 0x0A, 0xF5, 0xEF, 0x34, 0xD3, 0xE8, 0x06, 
  0xD7, 0x04, 0xCE, 0x56, 0xFE, 0xEF, 0x21, 0xF5, 0xBC, 0x4F, 0x33, 0x0E, 
  0x37, 0xBB, 0x2E, 0x11, 0xF6, 0xFF, 0xE4, 0xCD, 0xA7, 0xE2, 0xE6, 0xC7, 
  0xD6, 0xC2, 0xF9, 0xED, 0xF2, 0xF8, 0xF4, 0x2C, 0xAD, 0x19, 0x30, 0x40, 
  0x19, 0x0B, 0x46, 0xFA, 0x3D, 0xFF, 0xF9, 0xD7, 0xC0, 0xE7, 0xF4, 0x0F, 
  0xE4, 0xE1, 0xF8, 0xE8, 0x47, 0xC2, 0xC0, 0xEF, 0xC9, 0xFF, 0xCE, 0xEF, 
  0xE9, 0xEB, 0x54, 0x43, 0xFF, 0x21, 0x2E, 0x1D, 0xED, 0xEB, 0x59, 0x28, 
  0xF4, 0xEC, 0x57, 0xE5, 0x00, 0x4D, 0x46, 0xD8, 0x45, 0x5A, 0x09, 0xD9, 
  0x5A, 0x0C, 0x31, 0x41, 0xDE, 0xDD, 0x45, 0x39, 0xE9, 0x19, 0x1D, 0x1E, 
  0xB9, 0x2E, 0x24, 0x2B, 0xBC, 0x47, 0x02, 0xEC, 0x29, 0xC8, 0x3B, 0xE3, 
  0x1B, 0xB4, 0x19, 0x04, 0xC3, 0xCE, 0xBE, 0xBF, 0xA6, 0xFA, 0x20, 0x49, 
  0x66, 0x62, 0x44, 0xFD, 0x0B, 0xD6, 0xDC, 0xFB, 0x02, 0xFC, 0xBE, 0xF8, 
  0x1C, 0x23, 0x2F, 0x28, 0x07, 0xFA, 0x0C, 0xC6, 0xC8, 0xCD, 0xD2, 0xF4, 
  0x19, 0x44, 0x07, 0x30, 0x0F, 0xF6, 0xFB, 0x23, 0x05, 0x2E, 0xE1, 0x24, 
  0xDE, 0x0B, 0xF1, 0x1B, 0xFE, 0xE5, 0x05, 0xBF, 0xD5, 0x36, 0x03, 0x44, 
  0xDA, 0xD7, 0x24, 0x46, 0xF2, 0x9F, 0x25, 0x98, 0xCF, 0x2A, 0x4E, 0xEA, 
  0xEC, 0x0D, 0xFD, 0x2C, 0x2F, 0x42, 0xF2, 0x96, 0x11, 0xBD, 0xDF, 0x38, 
  0x40, 0xFE, 0x5B, 0xCC, 0x0F, 0xEB, 0x06, 0xE3, 0x11, 0x1A, 0x11, 0xF2, 
  0xEA, 0xD9, 0xEB, 0x0A, 0x25, 0xAB, 0xCE, 0x39, 0xD1, 0x34, 0x0F, 0xE2, 
  0xDB, 0xF6, 0xE5, 0xC3, 0xDC, 0x2F, 0xE3, 0xF5, 0xDE, 0x0D, 0x41, 0x05, 
  0x2D, 0x20, 0x1B, 0xFB, 0x13, 0x02, 0x0A, 0x3C, 0xEB, 0xE2, 0x31, 0xD2, 
  0x2A, 0xB3, 0x08, 0xC1, 0x13, 0xCE, 0x08, 0xD9, 0xF0, 0xF4, 0xD4, 0xFF, 
  0x1F, 0xF0, 0xD6, 0xF3, 0x2E, 0x10, 0xFB, 0x32, 0xFF, 0x17, 0x08, 0x45, 
  0x62, 0xEC, 0xFF, 0xFF, 0x04, 0x00, 0x00, 0x00, 0x00, 0x01, 0x00, 0x00, 
  0x97, 0xFC, 0xFF, 0xFF, 0xA0, 0xFB, 0xFF, 0xFF, 0xEC, 0xFE, 0xFF, 0xFF, 
  0x2B, 0x07, 0x00, 0x00, 0x72, 0xFB, 0xFF, 0xFF, 0x2A, 0xFA, 0xFF, 0xFF, 
  0xE8, 0xFA, 0xFF, 0xFF, 0xA9, 0x06, 0x00, 0x00, 0x24, 0xFD, 0xFF, 0xFF, 
  0xC7, 0xFE, 0xFF, 0xFF, 0x8D, 0x05, 0x00, 0x00, 0x1A, 0xFE, 0xFF, 0xFF, 
  0x39, 0xFD, 0xFF, 0xFF, 0x35, 0x03, 0x00, 0x00, 0xA1, 0xFD, 0xFF, 0xFF, 
  0x26, 0xFD, 0xFF, 0xFF, 0xF4, 0xFA, 0xFF, 0xFF, 0x16, 0x03, 0x00, 0x00, 
  0x36, 0xFC, 0xFF, 0xFF, 0x0A, 0x06, 0x00, 0x00, 0x7B, 0xFC, 0xFF, 0xFF, 
  0x33, 0x05, 0x00, 0x00, 0x53, 0xFD, 0xFF, 0xFF, 0x04, 0xFD, 0xFF, 0xFF, 
  0x1A, 0xFD, 0xFF, 0xFF, 0xF1, 0xFB, 0xFF, 0xFF, 0xA0, 0xFC, 0xFF, 0xFF, 
  0x16, 0xFD, 0xFF, 0xFF, 0x5A, 0x06, 0x00, 0x00, 0x09, 0xFE, 0xFF, 0xFF, 
  0xCB, 0x03, 0x00, 0x00, 0x96, 0xFB, 0xFF, 0xFF, 0xD1, 0xFC, 0xFF, 0xFF, 
  0x59, 0x00, 0x00, 0x00, 0xC0, 0xFB, 0xFF, 0xFF, 0xB3, 0xFD, 0xFF, 0xFF, 
  0xDC, 0x03, 0x00, 0x00, 0x6D, 0xFF, 0xFF, 0xFF, 0x74, 0x04, 0x00, 0x00, 
  0x20, 0x06, 0x00, 0x00, 0x4E, 0xFB, 0xFF, 0xFF, 0x9F, 0xFB, 0xFF, 0xFF, 
  0xC1, 0xFD, 0xFF, 0xFF, 0xA3, 0xFC, 0xFF, 0xFF, 0x7C, 0xFB, 0xFF, 0xFF, 
  0xA0, 0x02, 0x00, 0x00, 0x8B, 0xFC, 0xFF, 0xFF, 0xC7, 0x00, 0x00, 0x00, 
  0x3B, 0xFE, 0xFF, 0xFF, 0xD1, 0x06, 0x00, 0x00, 0xF4, 0xFA, 0xFF, 0xFF, 
  0xE8, 0xFC, 0xFF, 0xFF, 0x80, 0xFC, 0xFF, 0xFF, 0xA3, 0xFB, 0xFF, 0xFF, 
  0xE8, 0xFD, 0xFF, 0xFF, 0x63, 0xFB, 0xFF, 0xFF, 0xDE, 0xFA, 0xFF, 0xFF, 
  0x69, 0x00, 0x00, 0x00, 0x9A, 0xFD, 0xFF, 0xFF, 0x6D, 0xFB, 0xFF, 0xFF, 
  0x49, 0xFD, 0xFF, 0xFF, 0xE8, 0xFC, 0xFF, 0xFF, 0x71, 0xFE, 0xFF, 0xFF, 
  0x7E, 0x01, 0x00, 0x00, 0x6E, 0xED, 0xFF, 0xFF, 0x04, 0x00, 0x00, 0x00, 
  0x00, 0x10, 0x00, 0x00, 0xBF, 0xDF, 0x14, 0x1F, 0x11, 0x1B, 0x2A, 0xF0, 
  0x14, 0x0B, 0x2F, 0xFF, 0xF6, 0xFA, 0xEE, 0x2D, 0xF7, 0xFC, 0x15, 0xE6, 
  0xBE, 0x02, 0xDE, 0x31, 0xDF, 0xDC, 0x12, 0xD4, 0xED, 0x0B, 0xF3, 0xC3, 
  0xF8, 0x16, 0x00, 0x29, 0x0E, 0xE2, 0x1C, 0xCF, 0xDC, 0xCC, 0x00, 0x31, 
  0x27, 0x1E, 0xEF, 0xDA, 0x1B, 0x29, 0xF3, 0x03, 0x0C, 0xF3, 0xF3, 0xE5, 
  0x3A, 0xE5, 0xC2, 0x22, 0xC3, 0xAD, 0xC1, 0xFA, 0xF9, 0x11, 0xF1, 0x2B, 
  0x2F, 0xCA, 0xF2, 0xF3, 0xF9, 0x53, 0x32, 0xF8, 0xFC, 0x2A, 0xF9, 0xDD, 
  0x29, 0x15, 0x41, 0xEE, 0xEA, 0xF3, 0x2A, 0xEA, 0x37, 0x12, 0xBC, 0xDD, 
  0xE5, 0xC4, 0xD7, 0xE5, 0x18, 0x31, 0x14, 0xD2, 0xF5, 0xEE, 0xF5, 0x56, 
  0x22, 0x13, 0x17, 0x19, 0xDA, 0xCE, 0xFC, 0xBA, 0xFD, 0x0B, 0xF4, 0xDF, 
  0x3B, 0x15, 0xD2, 0xEE, 0x02, 0x2A, 0xE8, 0xB1, 0xD1, 0x17, 0xDF, 0x20, 
  0x51, 0x28, 0x13, 0x15, 0x2F, 0xF3, 0x4F, 0x30, 0x09, 0x5C, 0x1B, 0xF5, 
  0x63, 0xE1, 0x0D, 0x0F, 0x18, 0x23, 0x02, 0x1D, 0xF6, 0x13, 0x01, 0x1B, 
  0xFE, 0x15, 0x66, 0x2D, 0xD5, 0x01, 0xFD, 0x07, 0x32, 0x1C, 0x4F, 0x0E, 
  0x06, 0x21, 0xEE, 0x3C, 0x03, 0x1D, 0x28, 0x45, 0x35, 0x11, 0x55, 0x11, 
  0x2E, 0xEB, 0x02, 0x2E, 0x19, 0x41, 0xFA, 0x23, 0x2C, 0x47, 0x46, 0x00, 
  0x42, 0x01, 0x15, 0x27, 0xD7, 0xCD, 0xE2, 0x31, 0xF2, 0x23, 0xC6, 0x34, 
  0xC0, 0xD7, 0x3F, 0xCD, 0xCD, 0x49, 0x2B, 0xA9, 0xF5, 0x25, 0xB6, 0x20, 
  0xCF, 0x26, 0x1E, 0xD8, 0xD1, 0xFC, 0xF6, 0xD5, 0x4B, 0xDC, 0x3C, 0xD1, 
  0xF7, 0xF2, 0xED, 0x0C, 0x46, 0x1A, 0x12, 0x41, 0xAD, 0xB9, 0xEB, 0xE8, 
  0xB0, 0x24, 0xB7, 0x24, 0x1B, 0x4D, 0xBA, 0xD1, 0xF9, 0xB4, 0x22, 0xFA, 
  0x28, 0x01, 0xE6, 0x02, 0x23, 0xE9, 0xD1, 0x01, 0xCD, 0xCB, 0x1F, 0x17, 
  0xB2, 0xE3, 0xCA, 0xEA, 0xDE, 0xBE, 0xCB, 0x35, 0xBA, 0x31, 0xCC, 0xF0, 
  0xDF, 0xF2, 0x3C, 0xC6, 0xD3, 0x00, 0xEE, 0xF4, 0xEA, 0xCE, 0x15, 0x20, 
  0x38, 0x41, 0xF1, 0x1C, 0x03, 0xCC, 0x32, 0x0D, 0xFC, 0x3F, 0xFA, 0xC2, 
  0x19, 0x30, 0x2C, 0x0E, 0xB1, 0x30, 0x0E, 0x3E, 0x20, 0x0B, 0xD8, 0x03, 
  0xE6, 0x31, 0x0F, 0x35, 0xDB, 0x09, 0xE6, 0xDE, 0x11, 0x4A, 0x54, 0x42, 
  0x0D, 0xC8, 0x26, 0x22, 0xD2, 0x2C, 0x22, 0x1C, 0xD4, 0xB6, 0x50, 0xA3, 
  0xC9, 0x30, 0x08, 0xA9, 0xC7, 0x11, 0xD8, 0xF8, 0xF0, 0x3F, 0x1B, 0xFB, 
  0x1D, 0x13, 0xC3, 0xCC, 0x4C, 0x1C, 0x3B, 0xDB, 0xF3, 0x20, 0x22, 0xA1, 
  0x1C, 0xF4, 0x19, 0x3F, 0xD6, 0xFD, 0xA6, 0x06, 0xE6, 0x22, 0xD0, 0x13, 
  0xCE, 0x0F, 0x0C, 0xC3, 0xFA, 0x0F, 0xC3, 0xF9, 0xB2, 0xE6, 0x0D, 0xB9, 
  0xEC, 0x12, 0xB6, 0x1A, 0xFA, 0xE1, 0xF5, 0xEA, 0x35, 0xD3, 0x01, 0xD8, 
  0xE0, 0x4C, 0xEB, 0x33, 0xFE, 0x0F, 0xF5, 0x04, 0xD7, 0x4D, 0x15, 0xE2, 
  0x20, 0x37, 0xDC, 0xD6, 0xC9, 0xE5, 0xE2, 0xC7, 0xE3, 0xAF, 0xE8, 0xC8, 
  0xEA, 0x2F, 0x40, 0x0D, 0x11, 0x34, 0xF2, 0x37, 0xF6, 0xD4, 0x28, 0xFA, 
  0xFD, 0x36, 0xB7, 0xC0, 0x0F, 0x02, 0xEF, 0x2E, 0x3C, 0xCF, 0x18, 0x4C, 
  0xE2, 0x33, 0x2C, 0x30, 0x1E, 0x19, 0x34, 0x04, 0xFD, 0x0D, 0xE3, 0x1D, 
  0x24, 0xDD, 0xD0, 0x48, 0xF0, 0xCB, 0x31, 0xDB, 0xB4, 0x01, 0x0A, 0xF0, 
  0xC8, 0xF2, 0xF6, 0xF8, 0xD2, 0x32, 0xE6, 0xC0, 0x0F, 0xE7, 0xBF, 0xCC, 
  0x43, 0xDF, 0x01, 0xDB, 0xB4, 0x1C, 0xCC, 0xFD, 0x05, 0x25, 0x4F, 0x2F, 
  0xE0, 0xA5, 0xDE, 0xC4, 0xC7, 0xFE, 0xE5, 0x2B, 0x01, 0x38, 0x01, 0xCD, 
  0xB2, 0x01, 0xF8, 0xD8, 0x0F, 0xCB, 0xC9, 0xD5, 0x23, 0xB8, 0x9E, 0x06, 
  0xD0, 0x27, 0x4F, 0x04, 0xE4, 0xCD, 0x0B, 0x30, 0xA7, 0xF8, 0x1A, 0x19, 
  0x06, 0xCA, 0x1B, 0xAA, 0x2F, 0x0E, 0xF0, 0x2F, 0xE5, 0x9B, 0x55, 0x00, 
  0x40, 0xD3, 0xFE, 0xD1, 0x3E, 0xC4, 0x04, 0x37, 0xFD, 0xC1, 0x22, 0x33, 
  0xD7, 0x54, 0xE1, 0x11, 0xF3, 0x44, 0x35, 0xD6, 0xBF, 0x04, 0x27, 0x31, 
  0x00, 0xC0, 0xD0, 0x07, 0x07, 0xBE, 0x00, 0x2A, 0xE6, 0xBB, 0xBC, 0x48, 
  0xE4, 0xF7, 0xE9, 0xCE, 0x30, 0x08, 0x02, 0x11, 0xE9, 0xF2, 0x33, 0x01, 
  0x08, 0xD0, 0xE1, 0xEB, 0x4D, 0x2A, 0x09, 0xDF, 0x02, 0xFE, 0x15, 0x2A, 
  0xEC, 0xF5, 0x23, 0x4C, 0x15, 0xCE, 0x66, 0x48, 0xEC, 0x39, 0xE8, 0x07, 
  0x0D, 0xF4, 0x31, 0x27, 0xFF, 0x23, 0x07, 0x33, 0xE8, 0x0F, 0xE6, 0x33, 
  0x0F, 0xDE, 0xF9, 0xD4, 0x1D, 0xE2, 0x23, 0xFB, 0x0F, 0xF1, 0xD4, 0xE8, 
  0x34, 0x2A, 0xDE, 0xF9, 0x42, 0x22, 0x47, 0x3C, 0x3C, 0x3A, 0x2F, 0x16, 
  0x14, 0xEB, 0x43, 0x3D, 0x25, 0xEB, 0xD3, 0x49, 0xE1, 0x2E, 0x32, 0xD3, 
  0x16, 0x07, 0x10, 0xE2, 0xF0, 0x2A, 0xD3, 0x59, 0x41, 0x3F, 0xE2, 0x11, 
  0xC1, 0xDA, 0x10, 0xF0, 0x30, 0xFF, 0x19, 0xE2, 0x19, 0xFE, 0xCD, 0xF7, 
  0xFF, 0x0C, 0xF0, 0x2F, 0xDB, 0xFF, 0xDA, 0xFA, 0xFB, 0x16, 0xD2, 0x37, 
  0xB9, 0xF0, 0xF4, 0x22, 0x4C, 0xD0, 0x2E, 0xF3, 0x2B, 0xC5, 0x08, 0xEB, 
  0x51, 0x40, 0xF6, 0x12, 0xFC, 0x11, 0xE4, 0xF2, 0x36, 0x36, 0xE8, 0x1D, 
  0x1F, 0xFF, 0x49, 0x12, 0x30, 0x0A, 0x35, 0xF5, 0x4A, 0xF2, 0xDF, 0x32, 
  0x3E, 0x2A, 0x28, 0x4A, 0xDA, 0x16, 0xDE, 0x15, 0x0C, 0xE7, 0x15, 0x11, 
  0xD8, 0xE1, 0x1A, 0x13, 0xF5, 0xF7, 0xED, 0xD3, 0x08, 0x3A, 0x46, 0xF4, 
  0x07, 0x1E, 0x4A, 0x0F, 0x2F, 0xD5, 0x14, 0xF1, 0x1B, 0xEB, 0xEF, 0x23, 
  0x24, 0xF0, 0xF1, 0xF4, 0x5E, 0x3B, 0x0F, 0xE7, 0x3E, 0x4E, 0x15, 0x30, 
  0x04, 0x4C, 0x21, 0x2F, 0x17, 0x1B, 0x5B, 0x19, 0x1D, 0x19, 0xEE, 0x23, 
  0x53, 0xFD, 0x31, 0x06, 0x17, 0x32, 0x2A, 0x5C, 0xF0, 0xFB, 0xE8, 0x55, 
  0x3D, 0x3E, 0x42, 0x54, 0x07, 0xEC, 0x0C, 0x2B, 0x15, 0x0F, 0x48, 0x2C, 
  0x15, 0xFB, 0x52, 0xF7, 0x42, 0x19, 0x52, 0x4A, 0x47, 0x55, 0x42, 0x12, 
  0x11, 0xE6, 0x5D, 0x00, 0xFF, 0xFB, 0x29, 0xFA, 0x1B, 0xE9, 0x0F, 0x1B, 
  0xD5, 0x27, 0xCD, 0xFB, 0xE3, 0x0E, 0xF7, 0x07, 0xD0, 0x13, 0xEA, 0xC3, 
  0xC7, 0x1F, 0xE3, 0x03, 0xF4, 0x0B, 0x0F, 0x15, 0x20, 0xC8, 0xD3, 0xD0, 
  0x20, 0xE3, 0x43, 0xE6, 0xFB, 0x0B, 0xF8, 0x02, 0x1F, 0x3D, 0x1B, 0x26, 
  0xF6, 0x08, 0x36, 0x05, 0xF8, 0x0F, 0xC2, 0x17, 0xC7, 0x5E, 0xCC, 0xE4, 
  0x19, 0xD0, 0xD9, 0xEA, 0x0B, 0x18, 0xD3, 0xE6, 0xF4, 0x03, 0xE4, 0x0B, 
  0xD6, 0x1E, 0x0B, 0xDF, 0xE1, 0x19, 0x07, 0xE0, 0xE3, 0xFF, 0xE8, 0xFA, 
  0x0D, 0x03, 0x24, 0x1D, 0x3E, 0x1E, 0x3A, 0x19, 0xD5, 0x33, 0x3D, 0xFB, 
  0x0B, 0x1B, 0x2C, 0x3E, 0xFC, 0x15, 0xD0, 0x56, 0x4E, 0xE6, 0x1C, 0x50, 
  0xFB, 0x1F, 0x21, 0x2A, 0x67, 0x4F, 0x68, 0xE5, 0xED, 0xF7, 0x63, 0x37, 
  0x21, 0x30, 0x19, 0xEC, 0xE9, 0x3F, 0x56, 0x3B, 0x27, 0xFF, 0x1C, 0x3B, 
  0xD0, 0x1C, 0x60, 0x37, 0xBC, 0xD9, 0xE4, 0xF4, 0x03, 0xBD, 0xD4, 0x22, 
  0x12, 0xE3, 0x00, 0xED, 0x0C, 0xDD, 0x27, 0x15, 0xE4, 0x2D, 0x27, 0xAC, 
  0xC0, 0x07, 0x4D, 0xB3, 0xED, 0xCE, 0x02, 0xC8, 0x43, 0x2A, 0xF4, 0x51, 
  0x00, 0xD1, 0xE8, 0x28, 0x09, 0xCC, 0x0C, 0xE7, 0x33, 0x2A, 0x12, 0xCE, 
  0xC9, 0x55, 0x0B, 0xEF, 0xEE, 0x00, 0x0D, 0xC4, 0xC1, 0x05, 0xE3, 0x4F, 
  0xBE, 0xB3, 0x24, 0x4D, 0xE5, 0xEE, 0x2E, 0x19, 0x04, 0xF7, 0xE7, 0x12, 
  0x18, 0xFC, 0x13, 0x50, 0x04, 0x30, 0x40, 0xFA, 0xFE, 0x2C, 0x43, 0x04, 
  0xF5, 0xCF, 0xE4, 0xF5, 0xE2, 0xCE, 0xD0, 0xD5, 0xCF, 0x2F, 0x38, 0x38, 
  0x2E, 0xFC, 0x1F, 0xEF, 0x23, 0xE7, 0xC4, 0x31, 0x30, 0xD5, 0x61, 0x1A, 
  0xFD, 0xEE, 0x07, 0x1A, 0x3C, 0xF9, 0x2B, 0xC0, 0x18, 0x27, 0x00, 0xFD, 
  0xCC, 0xCE, 0xF5, 0xDB, 0x3A, 0xDA, 0x26, 0xDD, 0x23, 0xB6, 0x1C, 0xD9, 
  0x04, 0xCC, 0x2A, 0xEA, 0xCF, 0xBA, 0x2C, 0x32, 0xE2, 0xF6, 0x0E, 0xEB, 
  0xF7, 0xF3, 0xD3, 0xCF, 0xDA, 0xE7, 0x1D, 0x05, 0xC5, 0x0B, 0x37, 0x03, 
  0x07, 0x24, 0x09, 0xBF, 0x1D, 0xDE, 0x41, 0xE8, 0xD4, 0x12, 0x22, 0xFF, 
  0x05, 0x32, 0xCB, 0x4F, 0x3F, 0xE1, 0x13, 0xF2, 0xD6, 0x51, 0xE4, 0x34, 
  0xD1, 0xF5, 0xE0, 0xB3, 0x11, 0xD8, 0x29, 0x2F, 0xDE, 0x3A, 0xED, 0xDA, 
  0xC8, 0x1F, 0xD1, 0x1D, 0x06, 0x48, 0xF1, 0x19, 0x25, 0x3B, 0x09, 0xEB, 
  0x04, 0x36, 0xE7, 0xE7, 0xFE, 0xF2, 0x08, 0xEE, 0x01, 0xED, 0xE4, 0xFE, 
  0x4A, 0x02, 0x0E, 0x63, 0x3D, 0x06, 0x45, 0x4B, 0x2F, 0xED, 0x18, 0x32, 
  0x28, 0x45, 0xED, 0x47, 0xFE, 0x17, 0xDE, 0x1F, 0x14, 0x14, 0xE0, 0x0A, 
  0x24, 0x3A, 0x3F, 0x2E, 0x45, 0x09, 0x09, 0x45, 0xFD, 0x10, 0x0D, 0xEC, 
  0x0F, 0xF5, 0x22, 0x05, 0x00, 0x20, 0xEB, 0x04, 0x07, 0x2D, 0x1A, 0x32, 
  0x1F, 0xE2, 0xE5, 0xC5, 0x27, 0x39, 0xB0, 0xD1, 0x31, 0x2B, 0xC8, 0x4D, 
  0x0A, 0x4C, 0x20, 0x03, 0xD3, 0x3E, 0xFB, 0xD6, 0x14, 0x29, 0xCB, 0xD5, 
  0x03, 0x41, 0xDC, 0x14, 0xE9, 0xE9, 0xC9, 0xC9, 0x02, 0xD9, 0xFC, 0x45, 
  0xE3, 0x1A, 0x3F, 0x1B, 0xE8, 0x1A, 0x4A, 0x38, 0xE1, 0x3C, 0xFA, 0x15, 
  0xF3, 0x05, 0xE5, 0x27, 0x2E, 0xCE, 0xF2, 0x3B, 0xD8, 0x25, 0xEE, 0x25, 
  0x3A, 0xFE, 0x07, 0x20, 0xF1, 0x2D, 0x2B, 0x0E, 0x1F, 0x0C, 0x37, 0x24, 
  0x63, 0xDD, 0x2F, 0x21, 0x1B, 0xFB, 0x23, 0x0D, 0x4D, 0x29, 0x1B, 0xF5, 
  0x33, 0xFE, 0x33, 0x63, 0x0C, 0x08, 0xE7, 0x1C, 0x45, 0x04, 0xED, 0xF8, 
  0xF5, 0xE7, 0x07, 0x24, 0x53, 0x33, 0x69, 0xF9, 0x04, 0x3C, 0x0E, 0x20, 
  0x26, 0xE9, 0x2B, 0x58, 0x68, 0x45, 0x49, 0x06, 0xDD, 0xF4, 0x35, 0x3D, 
  0x0A, 0x4E, 0x32, 0x1C, 0x08, 0x1B, 0x38, 0x06, 0x05, 0xD6, 0xC5, 0x28, 
  0xD9, 0x0F, 0x0A, 0xDA, 0x00, 0x10, 0xD9, 0x0F, 0x36, 0x3A, 0x23, 0x27, 
  0xE4, 0x27, 0x1E, 0xBE, 0x24, 0x00, 0x06, 0xF2, 0x02, 0xE1, 0xE5, 0x0D, 
  0xBF, 0x1E, 0x04, 0xFE, 0x4D, 0x17, 0x0A, 0xFC, 0x28, 0xD2, 0xEC, 0xF8, 
  0xFD, 0x1C, 0xD9, 0xF4, 0xC4, 0x2D, 0xD2, 0x06, 0xE4, 0xEF, 0xF2, 0xFD, 
  0xCF, 0x2E, 0xB9, 0x1F, 0xDD, 0xD2, 0xDD, 0x2D, 0xE5, 0xDA, 0xFC, 0x0E, 
  0xDE, 0x09, 0x0D, 0xD0, 0xE1, 0xE2, 0xCA, 0xD3, 0xD2, 0x0B, 0xDD, 0xC5, 
  0xE6, 0x4B, 0x3C, 0xC3, 0x1E, 0x4D, 0xFD, 0xE1, 0xE3, 0x14, 0xF3, 0xFB, 
  0x05, 0x35, 0xAD, 0xDB, 0x30, 0x35, 0x2B, 0xC4, 0xF1, 0xF9, 0x25, 0xAF, 
  0x31, 0xD1, 0x0B, 0x03, 0xDF, 0x0C, 0x3D, 0x10, 0xF7, 0x07, 0x1E, 0x28, 
  0xEC, 0x0F, 0xD2, 0x2C, 0x15, 0x07, 0xF0, 0xEA, 0xE3, 0xFC, 0x5D, 0xFD, 
  0xEB, 0xFA, 0xF0, 0xF6, 0x29, 0x50, 0xF6, 0x35, 0x47, 0x11, 0xED, 0x4C, 
  0x2E, 0xD8, 0xF7, 0x0C, 0x19, 0xFA, 0x32, 0x0F, 0x4C, 0x00, 0xCF, 0x03, 
  0xF0, 0x1D, 0x22, 0x55, 0x2E, 0x28, 0xF1, 0xE6, 0x32, 0xFA, 0x20, 0x55, 
  0xDF, 0xD5, 0x3A, 0x25, 0x2A, 0x15, 0x2E, 0x42, 0x0F, 0x2F, 0x09, 0x2E, 
  0x07, 0x1D, 0x2F, 0x21, 0x31, 0xEA, 0xEB, 0x25, 0x41, 0x2C, 0x51, 0x0C, 
  0x1F, 0x14, 0x0C, 0x3D, 0x42, 0x10, 0xF0, 0x21, 0x3B, 0x57, 0x6F, 0x22, 
  0x2B, 0x47, 0x3D, 0x5A, 0x6E, 0x30, 0x2D, 0x1C, 0x3A, 0x3A, 0xE9, 0x00, 
  0x49, 0xF8, 0x06, 0x5E, 0x4B, 0x58, 0x37, 0x27, 0xE0, 0xF4, 0x01, 0x3E, 
  0x56, 0x1F, 0x40, 0x26, 0x22, 0x2E, 0x1C, 0xE6, 0x3C, 0x03, 0x32, 0x2E, 
  0x24, 0x08, 0x47, 0xDB, 0x3B, 0xFD, 0x0B, 0x64, 0x47, 0x33, 0x1A, 0xF9, 
  0x22, 0xF4, 0x4A, 0xF0, 0x72, 0xE5, 0x51, 0x37, 0x2E, 0xF8, 0xE2, 0x39, 
  0x1C, 0x46, 0x02, 0x05, 0xF8, 0xB8, 0x10, 0xCE, 0xFF, 0x48, 0x30, 0xCF, 
  0x0E, 0x0D, 0xDC, 0x10, 0xDF, 0x1A, 0xC7, 0x32, 0xC4, 0xCD, 0x25, 0x32, 
  0x0C, 0x30, 0x00, 0x00, 0xA7, 0x02, 0x2B, 0xC1, 0x1E, 0x15, 0x3D, 0x30, 
  0xAF, 0xE2, 0xFC, 0xDA, 0xCB, 0x2A, 0xF1, 0x25, 0xC8, 0x46, 0xEE, 0x1A, 
  0xC0, 0xCE, 0xD4, 0x0B, 0x2E, 0xEA, 0x1A, 0xD0, 0xF8, 0xA6, 0xEE, 0xD4, 
  0x27, 0x10, 0x4B, 0xFE, 0x31, 0xFD, 0x53, 0x35, 0x11, 0x5A, 0x35, 0x46, 
  0x4E, 0xCA, 0x1C, 0x4F, 0x0B, 0xF7, 0x0E, 0x47, 0x1C, 0xF2, 0x49, 0xF3, 
  0x0F, 0x11, 0x07, 0xF8, 0x0D, 0x26, 0x26, 0xF9, 0xFE, 0x36, 0x29, 0x54, 
  0x0B, 0x46, 0xEA, 0xE9, 0x51, 0xE4, 0x61, 0x4A, 0x1C, 0xDF, 0x04, 0xF4, 
  0x24, 0x17, 0x1E, 0x1C, 0x35, 0x10, 0x4C, 0x18, 0x0A, 0xF8, 0x3A, 0x54, 
  0x39, 0x51, 0x3F, 0xF7, 0xFE, 0xD7, 0xD7, 0xF9, 0xF8, 0x63, 0xE2, 0x2D, 
  0x39, 0x18, 0xF3, 0xD0, 0xED, 0xEF, 0xDB, 0xD1, 0xE0, 0x0F, 0xFD, 0x28, 
  0x21, 0x0F, 0xD7, 0x2A, 0x41, 0x1C, 0xE8, 0xD9, 0x3A, 0xD8, 0xFF, 0x04, 
  0x22, 0x14, 0xC4, 0xFF, 0xE7, 0x0F, 0x59, 0xD8, 0x09, 0xEB, 0xF2, 0x3E, 
  0xE1, 0x36, 0xCE, 0x2B, 0x28, 0xEA, 0xD5, 0x15, 0xE1, 0x25, 0x2E, 0xEE, 
  0xE9, 0xB2, 0x3E, 0xDB, 0x33, 0xE8, 0xE5, 0xD9, 0xF3, 0x00, 0x34, 0x06, 
  0x2F, 0xFC, 0x29, 0xE6, 0xDC, 0x23, 0xE0, 0x68, 0x65, 0x21, 0x1D, 0x41, 
  0x4D, 0x47, 0x44, 0x43, 0x25, 0x3B, 0x34, 0x3B, 0xFB, 0x59, 0x25, 0x6E, 
  0x3B, 0x13, 0x2C, 0x1E, 0x44, 0x45, 0x47, 0x09, 0xFD, 0x4A, 0xE6, 0x19, 
  0x7F, 0x55, 0x16, 0x30, 0xFA, 0x01, 0x41, 0x0D, 0x61, 0xD0, 0x25, 0x43, 
  0x28, 0x2F, 0x5D, 0x4A, 0x25, 0x02, 0x0B, 0x2C, 0x28, 0x16, 0x7B, 0xEB, 
  0xDB, 0x0B, 0xF0, 0x41, 0xFA, 0xED, 0xE4, 0x47, 0x0C, 0xF9, 0x17, 0x0D, 
  0xF2, 0xFF, 0xBC, 0xF2, 0xE2, 0x14, 0x00, 0xF4, 0xD3, 0x11, 0xE0, 0x1D, 
  0x02, 0xD0, 0xED, 0x23, 0x6C, 0x15, 0x30, 0xAD, 0x1A, 0xD9, 0xB1, 0xD9, 
  0x49, 0xD4, 0x22, 0x27, 0xCA, 0xDC, 0xAD, 0xFA, 0xBE, 0x08, 0xAD, 0xDC, 
  0x31, 0x2C, 0xD3, 0xAB, 0xA2, 0xBD, 0x12, 0xE3, 0xD8, 0x0E, 0x11, 0xB3, 
  0x04, 0xCA, 0xDE, 0x05, 0x4C, 0x20, 0xE6, 0x4C, 0x07, 0x24, 0x43, 0x27, 
  0x4E, 0x36, 0xF5, 0x29, 0x11, 0x2D, 0x47, 0xDD, 0x02, 0xF8, 0xD1, 0xF3, 
  0x40, 0xD6, 0xD2, 0xDC, 0x46, 0x27, 0x5E, 0xF4, 0xE3, 0xB5, 0xF5, 0xEB, 
  0x40, 0x1D, 0xCD, 0x13, 0x29, 0xDA, 0xF5, 0xC1, 0x11, 0x06, 0xED, 0x1C, 
  0x1B, 0xFB, 0xF0, 0x17, 0x0B, 0x2E, 0x52, 0x0D, 0x01, 0xD0, 0x2F, 0xFF, 
  0x4E, 0xDE, 0x33, 0x2F, 0xF5, 0x13, 0x00, 0x1D, 0xE7, 0x2C, 0x58, 0x1A, 
  0xBD, 0xD7, 0xF5, 0x23, 0xFE, 0x02, 0x37, 0xF5, 0xE1, 0xDF, 0xC6, 0xC1, 
  0x37, 0xEE, 0x2B, 0xDD, 0x03, 0xFB, 0x3E, 0xEB, 0x2F, 0x0D, 0xCF, 0x1C, 
  0x18, 0xD0, 0x0D, 0x1B, 0xC1, 0xA5, 0x09, 0xF8, 0x10, 0x2D, 0xD2, 0x2C, 
  0x62, 0x08, 0x32, 0xF4, 0xA0, 0x41, 0xF5, 0x14, 0xDA, 0xD9, 0xC9, 0x12, 
  0xF7, 0xC7, 0x0D, 0x39, 0xF0, 0xBF, 0xE0, 0x3F, 0xE2, 0x35, 0x13, 0x28, 
  0x1F, 0x42, 0xCD, 0x26, 0x2F, 0xDA, 0xD4, 0x29, 0x11, 0x47, 0x03, 0x37, 
  0xFD, 0x18, 0xDF, 0xD0, 0x9C, 0xFE, 0xCB, 0x46, 0x02, 0x27, 0xD0, 0x01, 
  0xD9, 0xEE, 0xD5, 0xBB, 0x27, 0xAD, 0xE7, 0xA6, 0xF8, 0x35, 0x41, 0x20, 
  0x1A, 0xEE, 0xED, 0x30, 0x12, 0xD2, 0x08, 0xCE, 0xBA, 0x16, 0x9C, 0xDD, 
  0xDE, 0xED, 0xCF, 0x18, 0x41, 0xC9, 0xF8, 0x3B, 0xF6, 0x4C, 0xBA, 0xBA, 
  0xEF, 0xEC, 0xB8, 0x02, 0x27, 0x3D, 0x16, 0xD8, 0xEB, 0x0E, 0xC1, 0xDB, 
  0xCE, 0x3A, 0x21, 0x1B, 0x2B, 0x32, 0x26, 0x20, 0xF4, 0x1B, 0x26, 0xDE, 
  0xF8, 0xFD, 0x35, 0xC9, 0x12, 0xE5, 0x07, 0xD2, 0xF9, 0x1E, 0x36, 0x28, 
  0x18, 0xD6, 0x38, 0x13, 0x4C, 0x0C, 0xFD, 0x0B, 0x5D, 0x1F, 0x0B, 0xEF, 
  0xE4, 0x3F, 0x2B, 0xF3, 0x35, 0x07, 0xE1, 0xC9, 0x23, 0xD5, 0xE2, 0xFB, 
  0x2C, 0xF0, 0xDC, 0x0A, 0xD1, 0x29, 0x3A, 0xF1, 0xF3, 0xFE, 0xBE, 0xF0, 
  0x41, 0xDC, 0xFE, 0x1A, 0xF6, 0x39, 0xE3, 0x02, 0xFA, 0xEE, 0xCE, 0x30, 
  0xA9, 0xD4, 0xF8, 0x49, 0xDB, 0x0D, 0xA7, 0xD0, 0xD2, 0x3A, 0x1A, 0xD4, 
  0xA7, 0xF0, 0xFF, 0x0A, 0xBB, 0x36, 0x49, 0x25, 0x4E, 0x41, 0x0C, 0x2A, 
  0xC8, 0xA5, 0x3B, 0xEB, 0xE8, 0xBE, 0xB0, 0xF9, 0x33, 0x2C, 0xF4, 0x10, 
  0xE3, 0x19, 0x06, 0xEC, 0x08, 0x1D, 0xED, 0xE2, 0xB2, 0xE2, 0xB7, 0xB3, 
  0xDE, 0xCE, 0xEE, 0x0E, 0x20, 0xF6, 0x99, 0x10, 0x17, 0xDB, 0x15, 0xC2, 
  0xE6, 0x11, 0xF8, 0x2D, 0x24, 0x05, 0xF4, 0x2E, 0x00, 0x23, 0x1D, 0xCE, 
  0x26, 0x01, 0x16, 0xAF, 0xC2, 0x3F, 0xC1, 0x32, 0x0A, 0x39, 0xD8, 0xE2, 
  0x2C, 0xF6, 0x13, 0xFF, 0xB8, 0x19, 0x0E, 0x16, 0x1B, 0xF4, 0xD5, 0xD9, 
  0xDA, 0x3E, 0xEB, 0xB4, 0x17, 0x0B, 0xF2, 0xEE, 0xEF, 0xF9, 0x0E, 0xD8, 
  0xB9, 0x25, 0xD8, 0x2E, 0xF5, 0x36, 0xF7, 0x3A, 0x10, 0x1D, 0xFC, 0x32, 
  0x18, 0xE8, 0x39, 0xEE, 0xA7, 0xE2, 0x0D, 0x33, 0x24, 0x07, 0xCE, 0x1D, 
  0xC8, 0x2E, 0x33, 0xF6, 0x17, 0x0C, 0xB4, 0xB3, 0x16, 0xF2, 0x04, 0x00, 
  0xF8, 0xDF, 0xD7, 0xBB, 0x3C, 0x1F, 0xDF, 0x28, 0x08, 0x35, 0xAF, 0x16, 
  0xEB, 0x41, 0xD5, 0x03, 0xC9, 0x38, 0x0A, 0x08, 0xC3, 0x2E, 0xC8, 0xDC, 
  0xFD, 0x1E, 0xE0, 0xE3, 0xF0, 0x0D, 0xDF, 0x33, 0x2D, 0x3E, 0x19, 0xE8, 
  0xFF, 0xB5, 0xFF, 0x25, 0xF3, 0x11, 0x2A, 0x0E, 0x1F, 0xDB, 0x08, 0x48, 
  0x43, 0xF4, 0x17, 0x1D, 0xC7, 0x06, 0x5E, 0xC7, 0x35, 0x1B, 0x00, 0xE4, 
  0xD8, 0xE7, 0x15, 0xE3, 0xF8, 0xDA, 0x3B, 0xF9, 0x4D, 0x18, 0xD3, 0x44, 
  0x53, 0x29, 0x30, 0x3A, 0xDF, 0x4A, 0x49, 0x37, 0xEE, 0x12, 0xCC, 0xCC, 
  0x30, 0x35, 0x14, 0xE4, 0x24, 0x2B, 0x1F, 0x45, 0xE4, 0x00, 0x36, 0xE6, 
  0xC7, 0x15, 0x04, 0x42, 0xF1, 0xDF, 0xB1, 0x47, 0xCF, 0xCE, 0x15, 0xE8, 
  0xA0, 0x03, 0xF7, 0xEF, 0x04, 0x09, 0xF0, 0x28, 0x0B, 0x3B, 0xAA, 0xF3, 
  0x06, 0xA5, 0x11, 0xAE, 0x08, 0xEE, 0x36, 0xCF, 0xA2, 0x1D, 0xE2, 0xF8, 
  0x08, 0x2C, 0x0D, 0x0E, 0xB8, 0xC1, 0xD7, 0xAE, 0xC3, 0x21, 0xE9, 0xE0, 
  0x09, 0x28, 0xAD, 0xBE, 0xCA, 0x0C, 0x09, 0xE3, 0x16, 0xD0, 0xFB, 0xC1, 
  0xBC, 0xF0, 0xF7, 0x2C, 0xED, 0xEC, 0xE2, 0x0E, 0xE6, 0x00, 0x1B, 0x2E, 
  0xF0, 0xD2, 0x0E, 0xCF, 0x13, 0x36, 0x0E, 0xFB, 0x3C, 0xDF, 0x44, 0xC7, 
  0xFD, 0x03, 0x13, 0xC9, 0x38, 0xD1, 0xEC, 0xD7, 0x07, 0xF5, 0x11, 0x38, 
  0xEC, 0xDA, 0x27, 0xE3, 0xD9, 0xED, 0x36, 0xF2, 0x56, 0x00, 0x06, 0xF9, 
  0xB6, 0x05, 0x2F, 0x47, 0xC0, 0x36, 0xE1, 0xF9, 0x23, 0x0B, 0x37, 0x03, 
  0xF2, 0xD2, 0x30, 0x47, 0xAB, 0x32, 0xEE, 0x11, 0xC8, 0xE5, 0xD3, 0x1F, 
  0x0F, 0xB8, 0xE3, 0xDE, 0xE1, 0xA5, 0x2D, 0xFB, 0x00, 0x0F, 0x23, 0x29, 
  0xF9, 0x47, 0x30, 0xE8, 0xC3, 0xD1, 0x40, 0xAE, 0x18, 0xE8, 0xEA, 0xCA, 
  0x0F, 0xF9, 0xE8, 0x1C, 0x1F, 0x0C, 0xE5, 0xDD, 0x3A, 0x27, 0x0D, 0x31, 
  0x33, 0x10, 0xF7, 0x25, 0xCD, 0x4B, 0x1A, 0x12, 0xF1, 0x0B, 0xBE, 0xB2, 
  0xCF, 0x17, 0x1B, 0x33, 0xCB, 0xFD, 0x12, 0x0B, 0xF8, 0x1E, 0x1D, 0x2E, 
  0x56, 0x04, 0x01, 0xD7, 0xE1, 0x28, 0x04, 0xD0, 0x17, 0xE0, 0x3E, 0xF4, 
  0x4B, 0x3B, 0x34, 0x01, 0xCF, 0xD6, 0x08, 0xE0, 0x10, 0xE5, 0xD5, 0xE8, 
  0x25, 0x3F, 0x08, 0xFD, 0x25, 0xBF, 0x3A, 0x36, 0x06, 0x3C, 0x1C, 0x33, 
  0x1B, 0xD3, 0xD4, 0xEF, 0xC0, 0x3C, 0xE0, 0x36, 0x33, 0x08, 0xD8, 0xE7, 
  0x13, 0x08, 0x2E, 0x41, 0xF8, 0xF7, 0xD0, 0x1A, 0x32, 0xFB, 0xFB, 0xE4, 
  0x13, 0xB7, 0x0F, 0x3B, 0x11, 0xD6, 0x08, 0x25, 0xDC, 0xE3, 0x26, 0x1B, 
  0x1E, 0x0B, 0x4E, 0x34, 0x01, 0xF5, 0x03, 0x2E, 0xE2, 0xF7, 0x2C, 0x12, 
  0x07, 0x20, 0xC3, 0x49, 0xBF, 0xF5, 0xCF, 0x33, 0x0D, 0x08, 0x19, 0xC6, 
  0xB7, 0x39, 0xD0, 0xF2, 0xDA, 0xE5, 0x43, 0x1A, 0xCE, 0xFC, 0x2C, 0x3A, 
  0x54, 0xF2, 0x39, 0xC2, 0x3A, 0x1F, 0x03, 0x21, 0xC6, 0x03, 0x02, 0xF0, 
  0xF6, 0xD0, 0xDB, 0x00, 0xF2, 0xA6, 0xF9, 0xE6, 0xFD, 0xEA, 0xFA, 0xDD, 
  0x15, 0x5E, 0x59, 0x0B, 0x46, 0xFC, 0x3B, 0x29, 0x45, 0xCC, 0x4B, 0x1D, 
  0x1C, 0x1D, 0x23, 0xEF, 0x45, 0xF8, 0xF6, 0x41, 0x3F, 0x34, 0x4F, 0x27, 
  0xE7, 0x38, 0xE1, 0x15, 0x3D, 0x3F, 0x0E, 0x38, 0xDC, 0x03, 0xFF, 0xDD, 
  0x07, 0x1F, 0x1D, 0x3E, 0x56, 0xDF, 0x06, 0x15, 0xEA, 0xE4, 0x21, 0x0F, 
  0xF9, 0x2D, 0x23, 0x22, 0xEE, 0x09, 0xFF, 0xD8, 0x53, 0xFC, 0x14, 0xE1, 
  0xE4, 0xD9, 0x3C, 0x3C, 0xB0, 0xB9, 0xE4, 0xFF, 0xEF, 0xD2, 0x0E, 0xBB, 
  0x8C, 0x2E, 0xE0, 0x2E, 0xF6, 0x02, 0xD5, 0x14, 0xAD, 0x4D, 0xEE, 0xE2, 
  0x0B, 0xF1, 0xDB, 0x8C, 0x09, 0xE2, 0xE9, 0xF7, 0xC8, 0xE2, 0x1A, 0xCB, 
  0x50, 0xF0, 0x23, 0x0D, 0x97, 0xCE, 0xE9, 0x07, 0xFC, 0x1E, 0x11, 0x21, 
  0xD9, 0x67, 0xD3, 0xF8, 0x06, 0x39, 0xE9, 0xEE, 0xD3, 0xF1, 0xEE, 0xCC, 
  0xBE, 0x3D, 0xF2, 0xDA, 0xC0, 0x00, 0x20, 0x21, 0x0E, 0xD2, 0xD8, 0x05, 
  0xEA, 0x15, 0xD2, 0xF4, 0xF6, 0xD6, 0xDD, 0x17, 0xBD, 0x28, 0xE4, 0x36, 
  0xEC, 0x1F, 0xD5, 0xBE, 0xF5, 0x30, 0xEE, 0xBA, 0xFB, 0x34, 0x06, 0xD4, 
  0xE8, 0x38, 0xF0, 0xC9, 0x21, 0x1B, 0x19, 0x20, 0xAC, 0x1E, 0xA9, 0x2C, 
  0xF9, 0x02, 0x1F, 0x00, 0xD8, 0x14, 0xD9, 0xC8, 0xEE, 0x0E, 0xB6, 0xE9, 
  0xD3, 0x04, 0x17, 0x11, 0xFC, 0x3E, 0xA2, 0x10, 0xD8, 0xED, 0x1B, 0x44, 
  0xA6, 0xB4, 0xAE, 0x2F, 0x03, 0xD0, 0xDF, 0xB1, 0xC1, 0x1D, 0x19, 0xD0, 
  0x30, 0x20, 0xD0, 0xFE, 0xFA, 0x0F, 0x33, 0xB4, 0x16, 0xCF, 0xD7, 0xC3, 
  0x54, 0x0D, 0xF4, 0xFE, 0x28, 0xAC, 0xFD, 0xE4, 0x11, 0x10, 0x40, 0xEF, 
  0x20, 0x30, 0xFE, 0xFC, 0xA8, 0x56, 0x17, 0x0B, 0xD0, 0x49, 0xBD, 0x12, 
  0xC3, 0xD7, 0xFF, 0x25, 0x0A, 0xF1, 0x27, 0x07, 0xB3, 0xE8, 0xD8, 0x3F, 
  0xFE, 0x30, 0xE0, 0x15, 0x41, 0x58, 0xEB, 0xF7, 0x24, 0xEE, 0x11, 0x0D, 
  0xEE, 0xE0, 0x4A, 0xFE, 0x00, 0xC6, 0xFC, 0xF8, 0x52, 0xC3, 0x11, 0x0E, 
  0x17, 0x1C, 0x1D, 0x14, 0xCC, 0x17, 0x2D, 0xD8, 0xF6, 0x3E, 0x20, 0xDC, 
  0xDE, 0xDA, 0x00, 0x13, 0x12, 0xF9, 0xDD, 0x0C, 0x16, 0x32, 0xE0, 0xF8, 
  0x43, 0x26, 0x11, 0xEB, 0xD1, 0xEC, 0x1C, 0xFF, 0xE4, 0x1B, 0xFE, 0x1A, 
  0x17, 0x13, 0x1A, 0x24, 0x37, 0xDD, 0xE9, 0xE3, 0x2E, 0x27, 0xFD, 0x48, 
  0x48, 0xDA, 0xF3, 0x02, 0xF1, 0xD7, 0x31, 0x06, 0x15, 0x25, 0x3A, 0xD6, 
  0x3F, 0x0C, 0x2F, 0x59, 0x19, 0x20, 0x55, 0xFF, 0xF8, 0x01, 0xF8, 0xDD, 
  0x28, 0xFA, 0x02, 0xCD, 0x34, 0xE7, 0xF6, 0x0B, 0x16, 0x09, 0x27, 0x27, 
  0x5A, 0xF4, 0x1B, 0x1A, 0xFA, 0xFF, 0xDE, 0x3D, 0xE2, 0x25, 0x14, 0x0D, 
  0x1C, 0x3D, 0x4A, 0x03, 0x15, 0x08, 0xE5, 0xFF, 0x02, 0xE3, 0x32, 0x29, 
  0xE9, 0xCF, 0x17, 0xFD, 0xC0, 0xDD, 0xF4, 0xD5, 0xE4, 0x04, 0x01, 0xE0, 
  0xFB, 0x03, 0xFF, 0x46, 0xCD, 0x07, 0xE8, 0xB0, 0xE9, 0xCB, 0x08, 0xBE, 
  0x01, 0x43, 0x15, 0xFE, 0x2D, 0x31, 0x0C, 0x1F, 0x28, 0xD0, 0xDC, 0x2C, 
  0xEE, 0xD1, 0xBE, 0xD7, 0x02, 0x0A, 0x01, 0x2A, 0xB4, 0x2C, 0xF5, 0xA4, 
  0xFC, 0x08, 0x23, 0x2B, 0x0B, 0x2A, 0x24, 0x40, 0xE3, 0xD5, 0x18, 0x10, 
  0x1A, 0xEA, 0xE8, 0x4F, 0x41, 0x14, 0xEB, 0x16, 0xD8, 0xDB, 0x0F, 0x13, 
  0xD1, 0xDA, 0xE7, 0xF4, 0x09, 0x30, 0xE5, 0x26, 0x3D, 0xFF, 0xEF, 0xD3, 
  0xD4, 0xD4, 0x0D, 0xF9, 0x3E, 0x37, 0x01, 0xF6, 0x11, 0xD8, 0xF1, 0xD4, 
  0x11, 0xFC, 0x59, 0xF9, 0xFE, 0xC3, 0x0F, 0xD9, 0xFB, 0xD8, 0x19, 0xB8, 
  0x2D, 0xCF, 0x37, 0x14, 0xE3, 0xD4, 0x30, 0xC1, 0xF2, 0x10, 0x2A, 0x1C, 
  0x41, 0xDE, 0x36, 0x2A, 0xE1, 0x37, 0xFA, 0xF8, 0x23, 0xDD, 0x02, 0xCF, 
  0x2D, 0x3C, 0xDC, 0x11, 0xF3, 0x2B, 0xE4, 0x4E, 0x1A, 0xE2, 0xE4, 0x3A, 
  0xF1, 0x42, 0x3B, 0xCE, 0xF7, 0xEE, 0x0F, 0x1A, 0xCB, 0xE1, 0xDC, 0x3C, 
  0x42, 0x28, 0xD9, 0x3A, 0x4A, 0x18, 0x14, 0xEF, 0x17, 0x52, 0x04, 0x36, 
  0xF2, 0xFA, 0x5C, 0x09, 0xD1, 0x48, 0xF4, 0xCD, 0xDF, 0x4A, 0x11, 0x06, 
  0xFB, 0x1B, 0x2C, 0x4D, 0x28, 0x3D, 0xE1, 0x38, 0x2C, 0x30, 0xBB, 0xDD, 
  0xD5, 0x14, 0x16, 0x19, 0x03, 0x13, 0x05, 0x15, 0xDD, 0xEB, 0x06, 0x2D, 
  0xB8, 0x20, 0x2C, 0xFA, 0xF2, 0x46, 0xDE, 0xDF, 0xCF, 0xD6, 0x1E, 0xD9, 
  0xF0, 0x2F, 0xFA, 0x29, 0xF4, 0x22, 0xDE, 0x18, 0xF3, 0xF1, 0xF3, 0xE3, 
  0x39, 0xB2, 0x4A, 0x05, 0xEF, 0xCD, 0xC9, 0x02, 0xE6, 0x13, 0x0B, 0x2D, 
  0x23, 0xE9, 0xF7, 0x1D, 0xCB, 0x2F, 0x09, 0x0C, 0x0D, 0x20, 0x24, 0xBB, 
  0x41, 0x26, 0x0F, 0xEF, 0x46, 0x0D, 0x23, 0x2F, 0xFA, 0x58, 0xE3, 0x65, 
  0x6D, 0x24, 0x3C, 0x10, 0x2B, 0x26, 0xFF, 0x1C, 0x3E, 0x24, 0x1D, 0x5B, 
  0x39, 0x25, 0x4E, 0x13, 0xF7, 0x3A, 0xEC, 0x05, 0x40, 0x31, 0x50, 0x62, 
  0x0E, 0xF4, 0xF7, 0x1B, 0x3B, 0x69, 0x45, 0xF3, 0x0D, 0xFC, 0x09, 0x32, 
  0x3F, 0xF3, 0x48, 0x51, 0x74, 0x49, 0x25, 0x50, 0x60, 0x14, 0x35, 0x0B, 
  0x3E, 0x0C, 0x4B, 0x20, 0xE7, 0x33, 0xE4, 0x0F, 0x1B, 0x1F, 0x07, 0x18, 
  0x07, 0x29, 0x2E, 0xE0, 0x19, 0x2B, 0x36, 0x35, 0x0E, 0xDA, 0xDC, 0x07, 
  0xF9, 0x02, 0xEE, 0x25, 0xEA, 0x24, 0x0D, 0x17, 0x31, 0xDE, 0xFF, 0x11, 
  0xF5, 0x03, 0xF1, 0x02, 0x13, 0xD7, 0x40, 0xCD, 0xD3, 0x07, 0x20, 0x0D, 
  0x48, 0x19, 0xF8, 0xEB, 0xF7, 0xFC, 0x4E, 0x2D, 0x2B, 0xEC, 0x21, 0x0A, 
  0x44, 0x30, 0xEE, 0x23, 0x39, 0x0A, 0x15, 0x1C, 0x5D, 0x2F, 0x24, 0xF3, 
  0x1D, 0x31, 0x25, 0x00, 0x4D, 0x45, 0x1E, 0x1A, 0x3E, 0x0B, 0xF2, 0x2F, 
  0x17, 0x10, 0x44, 0xFC, 0x40, 0x18, 0x2B, 0x41, 0x17, 0x3E, 0x13, 0x33, 
  0x29, 0x3A, 0xE9, 0x33, 0x02, 0xF4, 0x08, 0x64, 0x36, 0x43, 0xF7, 0xFA, 
  0x03, 0x07, 0x3E, 0xE8, 0x54, 0x01, 0x49, 0x05, 0x5B, 0xF6, 0x02, 0x02, 
  0x09, 0xEA, 0x45, 0x3E, 0x49, 0x1B, 0x2B, 0x48, 0xFF, 0x21, 0x2E, 0xED, 
  0xFA, 0xB8, 0xE6, 0x2A, 0xF7, 0x09, 0x0E, 0x31, 0x39, 0x25, 0x36, 0xDC, 
  0xDD, 0xF0, 0x01, 0xE5, 0xBC, 0xFC, 0xED, 0x1F, 0xF9, 0xF7, 0xCC, 0x0C, 
  0xFB, 0xFD, 0xD8, 0x27, 0x27, 0xF9, 0xF1, 0xC0, 0xED, 0xFE, 0xB9, 0x34, 
  0x23, 0x1A, 0x4F, 0x05, 0xF0, 0x01, 0x0C, 0x38, 0x1B, 0xF1, 0x22, 0x09, 
  0xFF, 0x16, 0xFD, 0xE5, 0xC8, 0xCF, 0xB9, 0xCD, 0xF8, 0xF3, 0xFB, 0x11, 
  0x47, 0xE0, 0x07, 0xE7, 0xCA, 0xF8, 0x2E, 0x08, 0x0B, 0xBF, 0xC7, 0xCD, 
  0xF4, 0x3D, 0xB1, 0x1E, 0xFB, 0xFD, 0x24, 0x3C, 0xEC, 0xEB, 0xF3, 0x28, 
  0x32, 0x0F, 0x07, 0xE5, 0x1C, 0x50, 0xF6, 0xBF, 0xD5, 0xC3, 0xE7, 0x28, 
  0xE7, 0x23, 0x09, 0xD5, 0x46, 0x1D, 0x11, 0x53, 0xBA, 0xCA, 0xD8, 0xF0, 
  0x13, 0x8E, 0xFC, 0xFD, 0xCC, 0x20, 0x18, 0xC5, 0xE5, 0x47, 0xD1, 0xBB, 
  0x21, 0x0C, 0xBC, 0xC0, 0x08, 0x10, 0xFE, 0xDD, 0xEB, 0x16, 0xF7, 0x37, 
  0x25, 0xCD, 0xBD, 0xF6, 0xEF, 0x2F, 0x0E, 0xD5, 0xC1, 0x33, 0x19, 0x2F, 
  0x07, 0xC6, 0x37, 0x4E, 0x2E, 0x36, 0x2F, 0xEF, 0xF8, 0xF7, 0xEF, 0x1B, 
  0xC0, 0x02, 0xE8, 0x0A, 0xEA, 0xFB, 0x30, 0xCD, 0x4D, 0xCA, 0x29, 0x13, 
  0xFE, 0xE4, 0xF4, 0x36, 0x21, 0xC4, 0xCB, 0x27, 0x0F, 0x07, 0x1E, 0xDB, 
  0x14, 0x40, 0xDA, 0x31, 0xC9, 0xEB, 0xD4, 0xD8, 0xBC, 0x09, 0xE7, 0xDF, 
  0x09, 0x20, 0x3B, 0x53, 0xD6, 0x2F, 0xFC, 0x42, 0xC3, 0xFC, 0x4D, 0xE9, 
  0xD2, 0x42, 0xD7, 0xE3, 0xC9, 0x15, 0xC8, 0x25, 0xBC, 0x25, 0xED, 0xCB, 
  0xCB, 0xB6, 0xB8, 0xD5, 0x07, 0xE0, 0x22, 0x08, 0xCB, 0xC9, 0xE4, 0xC2, 
  0x4A, 0x19, 0xFB, 0x27, 0xBF, 0xDF, 0xDC, 0xCD, 0xB8, 0x63, 0x11, 0x53, 
  0xB6, 0x08, 0xDB, 0xE4, 0xD7, 0xC6, 0xD3, 0x21, 0x1F, 0x2E, 0xD2, 0xE7, 
  0xF5, 0x2C, 0x09, 0xFB, 0x3B, 0xF2, 0x1B, 0xDB, 0x1B, 0x4E, 0x5F, 0xE8, 
  0x4D, 0xE4, 0x14, 0x3D, 0xFA, 0x24, 0x1E, 0x40, 0x2A, 0xE9, 0xE5, 0x06, 
  0x35, 0x1F, 0x2F, 0x51, 0x44, 0x30, 0x3E, 0x61, 0x1E, 0x0F, 0xCF, 0x04, 
  0x28, 0xC6, 0xFE, 0x2A, 0xC8, 0x22, 0x38, 0x1D, 0x2F, 0xDC, 0xF2, 0x3E, 
  0x62, 0xD3, 0xD6, 0x0D, 0xFE, 0xE1, 0x01, 0x0C, 0xFE, 0x16, 0x53, 0x0C, 
  0xF9, 0x24, 0x1D, 0x11, 0x31, 0xDF, 0xFD, 0xFF, 0x01, 0xAE, 0x1A, 0xFE, 
  0xE0, 0xF7, 0x0E, 0x32, 0x25, 0x14, 0x20, 0xB2, 0xEB, 0xFF, 0x2F, 0xB2, 
  0xE2, 0xE8, 0xCE, 0xDA, 0xDE, 0x2B, 0xCC, 0x3F, 0x3A, 0xCB, 0xBF, 0xE5, 
  0x34, 0x17, 0xF8, 0xC7, 0xD7, 0xED, 0xEF, 0x48, 0x01, 0x06, 0x02, 0x25, 
  0xDA, 0x18, 0x1E, 0xF8, 0x2B, 0x24, 0xCE, 0xD5, 0xF9, 0x09, 0xFB, 0x0D, 
  0xEB, 0x10, 0xBB, 0xEC, 0x25, 0xCE, 0x2F, 0xD2, 0x49, 0xE8, 0xD7, 0xFD, 
  0x38, 0xEB, 0x1F, 0x33, 0xF0, 0xF5, 0x05, 0x17, 0x34, 0x0B, 0x30, 0x2B, 
  0x04, 0x16, 0xE6, 0xF5, 0x14, 0x2D, 0x11, 0xD3, 0x2F, 0x0C, 0x0F, 0x04, 
  0xD5, 0x31, 0x4D, 0x0C, 0xE5, 0x34, 0x3B, 0x0E, 0xD8, 0xF0, 0x34, 0x1C, 
  0xF3, 0x2F, 0x34, 0x1A, 0xF5, 0xDB, 0xE5, 0x2E, 0xF9, 0xD6, 0x3E, 0xD9, 
  0x48, 0x0F, 0x2A, 0xEA, 0x2C, 0x37, 0x2D, 0x06, 0x3F, 0x16, 0x0D, 0x11, 
  0x42, 0xC5, 0x34, 0x41, 0x35, 0xFA, 0x0A, 0xFD, 0x3F, 0x14, 0x44, 0xD7, 
  0x03, 0xF6, 0xC8, 0xB5, 0x08, 0x34, 0xED, 0xED, 0xDF, 0xDE, 0x19, 0xF0, 
  0x5A, 0x09, 0x30, 0x30, 0x22, 0xCD, 0x1A, 0xE5, 0x0F, 0xB1, 0x54, 0x27, 
  0xC2, 0x3D, 0x18, 0xD8, 0xD1, 0xDC, 0xE1, 0xBF, 0x1C, 0x24, 0x02, 0x37, 
  0x29, 0xDE, 0xFA, 0x2B, 0xE5, 0xF7, 0x30, 0x34, 0x3B, 0x24, 0xFE, 0x33, 
  0x3A, 0x05, 0x2C, 0xDD, 0x23, 0xFC, 0xD5, 0xF6, 0x7A, 0xFD, 0xFF, 0xFF, 
  0x04, 0x00, 0x00, 0x00, 0x00, 0x01, 0x00, 0x00, 0x24, 0x00, 0x00, 0x00, 
  0xE4, 0xFF, 0xFF, 0xFF, 0x69, 0xFE, 0xFF, 0xFF, 0x96, 0x01, 0x00, 0x00, 
  0xCF, 0xFF, 0xFF, 0xFF, 0xD3, 0x01, 0x00, 0x00, 0x23, 0xFF, 0xFF, 0xFF, 
  0xB4, 0x02, 0x00, 0x00, 0x30, 0x00, 0x00, 0x00, 0x13, 0xFF, 0xFF, 0xFF, 
  0xFA, 0xFE, 0xFF, 0xFF, 0x2F, 0xFF, 0xFF, 0xFF, 0xAE, 0xFE, 0xFF, 0xFF, 
  0xEE, 0x01, 0x00, 0x00, 0xF6, 0xFE, 0xFF, 0xFF, 0xF2, 0xFF, 0xFF, 0xFF, 
  0x39, 0x01, 0x00, 0x00, 0x9E, 0x01, 0x00, 0x00, 0x88, 0xFE, 0xFF, 0xFF, 
  0x46, 0xFF, 0xFF, 0xFF, 0xB8, 0xFE, 0xFF, 0xFF, 0x6B, 0x01, 0x00, 0x00, 
  0xB6, 0x00, 0x00, 0x00, 0xAF, 0xFE, 0xFF, 0xFF, 0x3C, 0xFE, 0xFF, 0xFF, 
  0xD2, 0x01, 0x00, 0x00, 0x9C, 0xFE, 0xFF, 0xFF, 0xC9, 0x00, 0x00, 0x00, 
  0x6C, 0xFE, 0xFF, 0xFF, 0x2C, 0x02, 0x00, 0x00, 0x1F, 0x00, 0x00, 0x00, 
  0xCD, 0xFF, 0xFF, 0xFF, 0xAA, 0x01, 0x00, 0x00, 0x95, 0xFF, 0xFF, 0xFF, 
  0x3E, 0xFF, 0xFF, 0xFF, 0x25, 0x01, 0x00, 0x00, 0x9D, 0x01, 0x00, 0x00, 
  0xEB, 0xFE, 0xFF, 0xFF, 0x35, 0x02, 0x00, 0x00, 0x63, 0xFF, 0xFF, 0xFF, 
  0x36, 0x01, 0x00, 0x00, 0x1C, 0xFF, 0xFF, 0xFF, 0x04, 0x01, 0x00, 0x00, 
  0x49, 0xFF, 0xFF, 0xFF, 0x0C, 0x03, 0x00, 0x00, 0x02, 0x02, 0x00, 0x00, 
  0xC9, 0x01, 0x00, 0x00, 0x35, 0xFF, 0xFF, 0xFF, 0xC2, 0xFE, 0xFF, 0xFF, 
  0xC8, 0x01, 0x00, 0x00, 0x1E, 0x01, 0x00, 0x00, 0xA8, 0xFE, 0xFF, 0xFF, 
  0x97, 0xFF, 0xFF, 0xFF, 0xA1, 0xFE, 0xFF, 0xFF, 0xCB, 0xFE, 0xFF, 0xFF, 
  0xDE, 0xFE, 0xFF, 0xFF, 0x2A, 0x01, 0x00, 0x00, 0x62, 0x00, 0x00, 0x00, 
  0xD8, 0xFF, 0xFF, 0xFF, 0xFB, 0x01, 0x00, 0x00, 0x23, 0xFF, 0xFF, 0xFF, 
  0x1F, 0x02, 0x00, 0x00, 0xAD, 0xFE, 0xFF, 0xFF, 0xF8, 0xFE, 0xFF, 0xFF, 
  0x86, 0xFE, 0xFF, 0xFF, 0x04, 0x00, 0x00, 0x00, 0xC0, 0x00, 0x00, 0x00, 
  0x08, 0xFB, 0x3C, 0xB3, 0xDF, 0xE0, 0xD5, 0xD3, 0xA3, 0x35, 0x37, 0xF4, 
  0x35, 0xBF, 0x24, 0xCD, 0x4B, 0xB5, 0x4A, 0x02, 0xF8, 0xB6, 0xAB, 0x23, 
  0x06, 0xDA, 0xF7, 0x41, 0xDD, 0x24, 0x4C, 0xDE, 0xAD, 0xD2, 0xB7, 0xD1, 
  0xC3, 0xE7, 0xEC, 0x0F, 0xC1, 0x58, 0x57, 0x3F, 0xE5, 0xA3, 0xCF, 0x44, 
  0x47, 0xBA, 0x33, 0xFE, 0x0F, 0x2C, 0x4D, 0x45, 0x3B, 0xE4, 0xC7, 0xA4, 
  0x34, 0x38, 0x1A, 0x56, 0xF1, 0xF0, 0x94, 0x58, 0xD5, 0x6F, 0xBB, 0x45, 
  0xF5, 0xBD, 0xB9, 0xAB, 0xC7, 0x54, 0xBB, 0xC6, 0x24, 0x4C, 0xE9, 0xD8, 
  0x96, 0x50, 0xD8, 0xD2, 0xA1, 0x41, 0xB4, 0x1B, 0x95, 0x76, 0xF9, 0x0A, 
  0x45, 0xA6, 0xBB, 0x0F, 0x4A, 0xB0, 0x6E, 0xFA, 0x3F, 0xD2, 0x2B, 0xAD, 
  0x6D, 0x2A, 0x73, 0xE2, 0xFE, 0x2A, 0x19, 0x8B, 0xFE, 0x81, 0x9F, 0xA4, 
  0x27, 0x10, 0xD3, 0x69, 0xB4, 0x59, 0xD3, 0xF1, 0xCD, 0x32, 0x22, 0xC3, 
  0x58, 0xEA, 0x12, 0xA6, 0x71, 0xE0, 0xC4, 0xCF, 0x1F, 0xEC, 0x39, 0x1C, 
  0xA0, 0x27, 0x21, 0x3D, 0xF9, 0x26, 0x40, 0x08, 0xED, 0xB5, 0xFB, 0xBF, 
  0xDF, 0xE4, 0xB0, 0x5C, 0x27, 0x2A, 0x1C, 0x11, 0x1F, 0x0C, 0xE8, 0x2E, 
  0x44, 0xB1, 0xB1, 0xD1, 0x1D, 0xF9, 0x3F, 0xDD, 0x25, 0x01, 0xB2, 0x11, 
  0x2B, 0x1D, 0xC2, 0x2A, 0xB3, 0x51, 0x27, 0xDC, 0xD8, 0xD0, 0xF1, 0xE3, 
  0x52, 0xFF, 0xFF, 0xFF, 0x04, 0x00, 0x00, 0x00, 0x0C, 0x00, 0x00, 0x00, 
  0x8C, 0xFF, 0xFF, 0xFF, 0x7E, 0x00, 0x00, 0x00, 0xA4, 0xFF, 0xFF, 0xFF, 
  0x38, 0xFF, 0xFF, 0xFF, 0x3C, 0xFF, 0xFF, 0xFF, 0x0F, 0x00, 0x00, 0x00, 
  0x4D, 0x4C, 0x49, 0x52, 0x20, 0x43, 0x6F, 0x6E, 0x76, 0x65, 0x72, 0x74, 
  0x65, 0x64, 0x2E, 0x00, 0x01, 0x00, 0x00, 0x00, 0x14, 0x00, 0x00, 0x00, 
  0x00, 0x00, 0x0E, 0x00, 0x18, 0x00, 0x14, 0x00, 0x10, 0x00, 0x0C, 0x00, 
  0x08, 0x00, 0x04, 0x00, 0x0E, 0x00, 0x00, 0x00, 0x14, 0x00, 0x00, 0x00, 
  0x1C, 0x00, 0x00, 0x00, 0x28, 0x01, 0x00, 0x00, 0x2C, 0x01, 0x00, 0x00, 
  0x30, 0x01, 0x00, 0x00, 0x04, 0x00, 0x00, 0x00, 0x6D, 0x61, 0x69, 0x6E, 
  0x00, 0x00, 0x00, 0x00, 0x04, 0x00, 0x00, 0x00, 0xD0, 0x00, 0x00, 0x00, 
  0x88, 0x00, 0x00, 0x00, 0x50, 0x00, 0x00, 0x00, 0x14, 0x00, 0x00, 0x00, 
  0x00, 0x00, 0x0E, 0x00, 0x1A, 0x00, 0x14, 0x00, 0x10, 0x00, 0x0C, 0x00, 
  0x0B, 0x00, 0x04, 0x00, 0x0E, 0x00, 0x00, 0x00, 0x1C, 0x00, 0x00, 0x00, 
  0x00, 0x00, 0x00, 0x09, 0x1C, 0x00, 0x00, 0x00, 0x20, 0x00, 0x00, 0x00, 
  0x01, 0x00, 0x00, 0x00, 0x00, 0x00, 0x06, 0x00, 0x08, 0x00, 0x04, 0x00, 
  0x06, 0x00, 0x00, 0x00, 0x00, 0x00, 0x80, 0x3F, 0x01, 0x00, 0x00, 0x00, 
  0x0A, 0x00, 0x00, 0x00, 0x01, 0x00, 0x00, 0x00, 0x09, 0x00, 0x00, 0x00, 
  0x96, 0xFF, 0xFF, 0xFF, 0x14, 0x00, 0x00, 0x00, 0x00, 0x00, 0x00, 0x08, 
  0x10, 0x00, 0x00, 0x00, 0x14, 0x00, 0x00, 0x00, 0x04, 0x00, 0x04, 0x00, 
  0x04, 0x00, 0x00, 0x00, 0x01, 0x00, 0x00, 0x00, 0x09, 0x00, 0x00, 0x00, 
  0x03, 0x00, 0x00, 0x00, 0x08, 0x00, 0x00, 0x00, 0x02, 0x00, 0x00, 0x00, 
  0x01, 0x00, 0x00, 0x00, 0xCA, 0xFF, 0xFF, 0xFF, 0x10, 0x00, 0x00, 0x00, 
  0x00, 0x00, 0x00, 0x08, 0x10, 0x00, 0x00, 0x00, 0x14, 0x00, 0x00, 0x00, 
  0xBA, 0xFF, 0xFF, 0xFF, 0x00, 0x00, 0x00, 0x01, 0x01, 0x00, 0x00, 0x00, 
  0x08, 0x00, 0x00, 0x00, 0x03, 0x00, 0x00, 0x00, 0x07, 0x00, 0x00, 0x00, 
  0x04, 0x00, 0x00, 0x00, 0x03, 0x00, 0x00, 0x00, 0x00, 0x00, 0x0E, 0x00, 
  0x16, 0x00, 0x00, 0x00, 0x10, 0x00, 0x0C, 0x00, 0x0B, 0x00, 0x04, 0x00, 
  0x0E, 0x00, 0x00, 0x00, 0x18, 0x00, 0x00, 0x00, 0x00, 0x00, 0x00, 0x08, 
  0x18, 0x00, 0x00, 0x00, 0x1C, 0x00, 0x00, 0x00, 0x00, 0x00, 0x06, 0x00, 
  0x08, 0x00, 0x07, 0x00, 0x06, 0x00, 0x00, 0x00, 0x00, 0x00, 0x00, 0x01, 
  0x01, 0x00, 0x00, 0x00, 0x07, 0x00, 0x00, 0x00, 0x03, 0x00, 0x00, 0x00, 
  0x00, 0x00, 0x00, 0x00, 0x06, 0x00, 0x00, 0x00, 0x05, 0x00, 0x00, 0x00, 
  0x01, 0x00, 0x00, 0x00, 0x0A, 0x00, 0x00, 0x00, 0x01, 0x00, 0x00, 0x00, 
  0x00, 0x00, 0x00, 0x00, 0x0B, 0x00, 0x00, 0x00, 0x58, 0x05, 0x00, 0x00, 
  0xC8, 0x04, 0x00, 0x00, 0x44, 0x04, 0x00, 0x00, 0xC8, 0x03, 0x00, 0x00, 
  0x5C, 0x03, 0x00, 0x00, 0xE8, 0x02, 0x00, 0x00, 0x7C, 0x02, 0x00, 0x00, 
  0xD0, 0x01, 0x00, 0x00, 0x1C, 0x01, 0x00, 0x00, 0x80, 0x00, 0x00, 0x00, 
  0x04, 0x00, 0x00, 0x00, 0xEA, 0xFA, 0xFF, 0xFF, 0x00, 0x00, 0x00, 0x01, 
  0x18, 0x00, 0x00, 0x00, 0x20, 0x00, 0x00, 0x00, 0x3C, 0x00, 0x00, 0x00, 
  0x0B, 0x00, 0x00, 0x00, 0x00, 0x00, 0x00, 0x09, 0x50, 0x00, 0x00, 0x00, 
  0x02, 0x00, 0x00, 0x00, 0xFF, 0xFF, 0xFF, 0xFF, 0x03, 0x00, 0x00, 0x00, 
  0xD4, 0xFA, 0xFF, 0xFF, 0x08, 0x00, 0x00, 0x00, 0x10, 0x00, 0x00, 0x00, 
  0x01, 0x00, 0x00, 0x00, 0x80, 0xFF, 0xFF, 0xFF, 0xFF, 0xFF, 0xFF, 0xFF, 
  0x01, 0x00, 0x00, 0x00, 0x00, 0x00, 0x80, 0x3B, 0x19, 0x00, 0x00, 0x00, 
  0x53, 0x74, 0x61, 0x74, 0x65, 0x66, 0x75, 0x6C, 0x50, 0x61, 0x72, 0x74, 
  0x69, 0x74, 0x69, 0x6F, 0x6E, 0x65, 0x64, 0x43, 0x61, 0x6C, 0x6C, 0x3A, 
  0x30, 0x00, 0x00, 0x00, 0x02, 0x00, 0x00, 0x00, 0x01, 0x00, 0x00, 0x00, 
  0x03, 0x00, 0x00, 0x00, 0x62, 0xFB, 0xFF, 0xFF, 0x00, 0x00, 0x00, 0x01, 
  0x18, 0x00, 0x00, 0x00, 0x20, 0x00, 0x00, 0x00, 0x40, 0x00, 0x00, 0x00, 
  0x0A, 0x00, 0x00, 0x00, 0x00, 0x00, 0x00, 0x09, 0x70, 0x00, 0x00, 0x00, 
  0x02, 0x00, 0x00, 0x00, 0xFF, 0xFF, 0xFF, 0xFF, 0x03, 0x00, 0x00, 0x00, 
  0x4C, 0xFB, 0xFF, 0xFF, 0x08, 0x00, 0x00, 0x00, 0x14, 0x00, 0x00, 0x00, 
  0x01, 0x00, 0x00, 0x00, 0x17, 0x00, 0x00, 0x00, 0x00, 0x00, 0x00, 0x00, 
  0x00, 0x00, 0x00, 0x00, 0x01, 0x00, 0x00, 0x00, 0xA9, 0xE2, 0x07, 0x40, 
  0x34, 0x00, 0x00, 0x00, 0x73, 0x65, 0x71, 0x75, 0x65, 0x6E, 0x74, 0x69, 
  0x61, 0x6C, 0x2F, 0x64, 0x65, 0x6E, 0x73, 0x65, 0x5F, 0x32, 0x2F, 0x4D, 
  0x61, 0x74, 0x4D, 0x75, 0x6C, 0x3B, 0x73, 0x65, 0x71, 0x75, 0x65, 0x6E, 
  0x74, 0x69, 0x61, 0x6C, 0x2F, 0x64, 0x65, 0x6E, 0x73, 0x65, 0x5F, 0x32, 
  0x2F, 0x42, 0x69, 0x61, 0x73, 0x41, 0x64, 0x64, 0x00, 0x00, 0x00, 0x00, 
  0x02, 0x00, 0x00, 0x00, 0x01, 0x00, 0x00, 0x00, 0x03, 0x00, 0x00, 0x00, 
  0xFA, 0xFB, 0xFF, 0xFF, 0x00, 0x00, 0x00, 0x01, 0x18, 0x00, 0x00, 0x00, 
  0x20, 0x00, 0x00, 0x00, 0x40, 0x00, 0x00, 0x00, 0x09, 0x00, 0x00, 0x00, 
  0x00, 0x00, 0x00, 0x09, 0x88, 0x00, 0x00, 0x00, 0x02, 0x00, 0x00, 0x00, 
  0xFF, 0xFF, 0xFF, 0xFF, 0x40, 0x00, 0x00, 0x00, 0xE4, 0xFB, 0xFF, 0xFF, 
  0x08, 0x00, 0x00, 0x00, 0x14, 0x00, 0x00, 0x00, 0x01, 0x00, 0x00, 0x00, 
  0x80, 0xFF, 0xFF, 0xFF, 0xFF, 0xFF, 0xFF, 0xFF, 0x00, 0x00, 0x00, 0x00, 
  0x01, 0x00, 0x00, 0x00, 0xF0, 0x0E, 0xA8, 0x3E, 0x4C, 0x00, 0x00, 0x00, 
  0x73, 0x65, 0x71, 0x75, 0x65, 0x6E, 0x74, 0x69, 0x61, 0x6C, 0x2F, 0x64, 
  0x65, 0x6E, 0x73, 0x65, 0x5F, 0x31, 0x2F, 0x4D, 0x61, 0x74, 0x4D, 0x75, 
  0x6C, 0x3B, 0x73, 0x65, 0x71, 0x75, 0x65, 0x6E, 0x74, 0x69, 0x61, 0x6C, 
  0x2F, 0x64, 0x65, 0x6E, 0x73, 0x65, 0x5F, 0x31, 0x2F, 0x52, 0x65, 0x6C, 
  0x75, 0x3B, 0x73, 0x65, 0x71, 0x75, 0x65, 0x6E, 0x74, 0x69, 0x61, 0x6C, 
  0x2F, 0x64, 0x65, 0x6E, 0x73, 0x65, 0x5F, 0x31, 0x2F, 0x42, 0x69, 0x61, 
  0x73, 0x41, 0x64, 0x64, 0x00, 0x00, 0x00, 0x00, 0x02, 0x00, 0x00, 0x00, 
  0x01, 0x00, 0x00, 0x00, 0x40, 0x00, 0x00, 0x00, 0xAA, 0xFC, 0xFF, 0xFF, 
  0x00, 0x00, 0x00, 0x01, 0x18, 0x00, 0x00, 0x00, 0x20, 0x00, 0x00, 0x00, 
  0x40, 0x00, 0x00, 0x00, 0x08, 0x00, 0x00, 0x00, 0x00, 0x00, 0x00, 0x09, 
  0x80, 0x00, 0x00, 0x00, 0x02, 0x00, 0x00, 0x00, 0xFF, 0xFF, 0xFF, 0xFF, 
  0x40, 0x00, 0x00, 0x00, 0x94, 0xFC, 0xFF, 0xFF, 0x08, 0x00, 0x00, 0x00, 
  0x14, 0x00, 0x00, 0x00, 0x01, 0x00, 0x00, 0x00, 0x80, 0xFF, 0xFF, 0xFF, 
  0xFF, 0xFF, 0xFF, 0xFF, 0x00, 0x00, 0x00, 0x00, 0x01, 0x00, 0x00, 0x00, 
  0x17, 0x3F, 0x35, 0x3E, 0x46, 0x00, 0x00, 0x00, 0x73, 0x65, 0x71, 0x75, 
  0x65, 0x6E, 0x74, 0x69, 0x61, 0x6C, 0x2F, 0x64, 0x65, 0x6E, 0x73, 0x65, 
  0x2F, 0x4D, 0x61, 0x74, 0x4D, 0x75, 0x6C, 0x3B, 0x73, 0x65, 0x71, 0x75, 
  0x65, 0x6E, 0x74, 0x69, 0x61, 0x6C, 0x2F, 0x64, 0x65, 0x6E, 0x73, 0x65, 
  0x2F, 0x52, 0x65, 0x6C, 0x75, 0x3B, 0x73, 0x65, 0x71, 0x75, 0x65, 0x6E, 
  0x74, 0x69, 0x61, 0x6C, 0x2F, 0x64, 0x65, 0x6E, 0x73, 0x65, 0x2F, 0x42, 
  0x69, 0x61, 0x73, 0x41, 0x64, 0x64, 0x00, 0x00, 0x02, 0x00, 0x00, 0x00, 
  0x01, 0x00, 0x00, 0x00, 0x40, 0x00, 0x00, 0x00, 0xDE, 0xFD, 0xFF, 0xFF, 
  0x00, 0x00, 0x00, 0x01, 0x14, 0x00, 0x00, 0x00, 0x34, 0x00, 0x00, 0x00, 
  0x07, 0x00, 0x00, 0x00, 0x00, 0x00, 0x00, 0x09, 0x44, 0x00, 0x00, 0x00, 
  0x2C, 0xFD, 0xFF, 0xFF, 0x08, 0x00, 0x00, 0x00, 0x14, 0x00, 0x00, 0x00, 
  0x01, 0x00, 0x00, 0x00, 0x00, 0x00, 0x00, 0x00, 0x00, 0x00, 0x00, 0x00, 
  0x00, 0x00, 0x00, 0x00, 0x01, 0x00, 0x00, 0x00, 0x32, 0x74, 0x59, 0x3B, 
  0x17, 0x00, 0x00, 0x00, 0x73, 0x65, 0x71, 0x75, 0x65, 0x6E, 0x74, 0x69, 
  0x61, 0x6C, 0x2F, 0x64, 0x65, 0x6E, 0x73, 0x65, 0x2F, 0x4D, 0x61, 0x74, 
  0x4D, 0x75, 0x6C, 0x00, 0x02, 0x00, 0x00, 0x00, 0x40, 0x00, 0x00, 0x00, 
  0x32, 0x00, 0x00, 0x00, 0x46, 0xFE, 0xFF, 0xFF, 0x00, 0x00, 0x00, 0x01, 
  0x14, 0x00, 0x00, 0x00, 0x30, 0x00, 0x00, 0x00, 0x06, 0x00, 0x00, 0x00, 
  0x00, 0x00, 0x00, 0x02, 0x50, 0x00, 0x00, 0x00, 0x94, 0xFD, 0xFF, 0xFF, 
  0x08, 0x00, 0x00, 0x00, 0x10, 0x00, 0x00, 0x00, 0x01, 0x00, 0x00, 0x00, 
  0x00, 0x00, 0x00, 0x00, 0x00, 0x00, 0x00, 0x00, 0x01, 0x00, 0x00, 0x00, 
  0x40, 0xA4, 0x77, 0x39, 0x27, 0x00, 0x00, 0x00, 0x73, 0x65, 0x71, 0x75, 
  0x65, 0x6E, 0x74, 0x69, 0x61, 0x6C, 0x2F, 0x64, 0x65, 0x6E, 0x73, 0x65, 
  0x2F, 0x42, 0x69, 0x61, 0x73, 0x41, 0x64, 0x64, 0x2F, 0x52, 0x65, 0x61, 
  0x64, 0x56, 0x61, 0x72, 0x69, 0x61, 0x62, 0x6C, 0x65, 0x4F, 0x70, 0x00, 
  0x01, 0x00, 0x00, 0x00, 0x40, 0x00, 0x00, 0x00, 0xB6, 0xFE, 0xFF, 0xFF, 
  0x00, 0x00, 0x00, 0x01, 0x14, 0x00, 0x00, 0x00, 0x30, 0x00, 0x00, 0x00, 
  0x05, 0x00, 0x00, 0x00, 0x00, 0x00, 0x00, 0x09, 0x44, 0x00, 0x00, 0x00, 
  0x04, 0xFE, 0xFF, 0xFF, 0x08, 0x00, 0x00, 0x00, 0x10, 0x00, 0x00, 0x00, 
  0x01, 0x00, 0x00, 0x00, 0x00, 0x00, 0x00, 0x00, 0x00, 0x00, 0x00, 0x00, 
  0x01, 0x00, 0x00, 0x00, 0xDA, 0x58, 0x70, 0x3B, 0x19, 0x00, 0x00, 0x00, 
  0x73, 0x65, 0x71, 0x75, 0x65, 0x6E, 0x74, 0x69, 0x61, 0x6C, 0x2F, 0x64, 
  0x65, 0x6E, 0x73, 0x65, 0x5F, 0x31, 0x2F, 0x4D, 0x61, 0x74, 0x4D, 0x75, 
  0x6C, 0x00, 0x00, 0x00, 0x02, 0x00, 0x00, 0x00, 0x40, 0x00, 0x00, 0x00, 
  0x40, 0x00, 0x00, 0x00, 0x1E, 0xFF, 0xFF, 0xFF, 0x00, 0x00, 0x00, 0x01, 
  0x14, 0x00, 0x00, 0x00, 0x34, 0x00, 0x00, 0x00, 0x04, 0x00, 0x00, 0x00, 
  0x00, 0x00, 0x00, 0x02, 0x58, 0x00, 0x00, 0x00, 0x6C, 0xFE, 0xFF, 0xFF, 
  0x08, 0x00, 0x00, 0x00, 0x14, 0x00, 0x00, 0x00, 0x01, 0x00, 0x00, 0x00, 
  0x00, 0x00, 0x00, 0x00, 0x00, 0x00, 0x00, 0x00, 0x00, 0x00, 0x00, 0x00, 
  0x01, 0x00, 0x00, 0x00, 0x0E, 0x2A, 0x2A, 0x3A, 0x29, 0x00, 0x00, 0x00, 
  0x73, 0x65, 0x71, 0x75, 0x65, 0x6E, 0x74, 0x69, 0x61, 0x6C, 0x2F, 0x64, 
  0x65, 0x6E, 0x73, 0x65, 0x5F, 0x31, 0x2F, 0x42, 0x69, 0x61, 0x73, 0x41, 
  0x64, 0x64, 0x2F, 0x52, 0x65, 0x61, 0x64, 0x56, 0x61, 0x72, 0x69, 0x61, 
  0x62, 0x6C, 0x65, 0x4F, 0x70, 0x00, 0x00, 0x00, 0x01, 0x00, 0x00, 0x00, 
  0x40, 0x00, 0x00, 0x00, 0x96, 0xFF, 0xFF, 0xFF, 0x00, 0x00, 0x00, 0x01, 
  0x14, 0x00, 0x00, 0x00, 0x30, 0x00, 0x00, 0x00, 0x03, 0x00, 0x00, 0x00, 
  0x00, 0x00, 0x00, 0x09, 0x44, 0x00, 0x00, 0x00, 0xE4, 0xFE, 0xFF, 0xFF, 
  0x08, 0x00, 0x00, 0x00, 0x10, 0x00, 0x00, 0x00, 0x01, 0x00, 0x00, 0x00, 
  0x00, 0x00, 0x00, 0x00, 0x00, 0x00, 0x00, 0x00, 0x01, 0x00, 0x00, 0x00, 
  0xB7, 0x9D, 0xA4, 0x3B, 0x19, 0x00, 0x00, 0x00, 0x73, 0x65, 0x71, 0x75, 
  0x65, 0x6E, 0x74, 0x69, 0x61, 0x6C, 0x2F, 0x64, 0x65, 0x6E, 0x73, 0x65, 
  0x5F, 0x32, 0x2F, 0x4D, 0x61, 0x74, 0x4D, 0x75, 0x6C, 0x00, 0x00, 0x00, 
  0x02, 0x00, 0x00, 0x00, 0x03, 0x00, 0x00, 0x00, 0x40, 0x00, 0x00, 0x00, 
  0x00, 0x00, 0x16, 0x00, 0x1C, 0x00, 0x18, 0x00, 0x17, 0x00, 0x10, 0x00, 
  0x0C, 0x00, 0x08, 0x00, 0x00, 0x00, 0x00, 0x00, 0x00, 0x00, 0x07, 0x00, 
  0x16, 0x00, 0x00, 0x00, 0x00, 0x00, 0x00, 0x01, 0x14, 0x00, 0x00, 0x00, 
  0x30, 0x00, 0x00, 0x00, 0x02, 0x00, 0x00, 0x00, 0x00, 0x00, 0x00, 0x02, 
  0x54, 0x00, 0x00, 0x00, 0x64, 0xFF, 0xFF, 0xFF, 0x08, 0x00, 0x00, 0x00, 
  0x10, 0x00, 0x00, 0x00, 0x01, 0x00, 0x00, 0x00, 0x00, 0x00, 0x00, 0x00, 
  0x00, 0x00, 0x00, 0x00, 0x01, 0x00, 0x00, 0x00, 0x36, 0x22, 0xD8, 0x3A, 
  0x29, 0x00, 0x00, 0x00, 0x73, 0x65, 0x71, 0x75, 0x65, 0x6E, 0x74, 0x69, 
  0x61, 0x6C, 0x2F, 0x64, 0x65, 0x6E, 0x73, 0x65, 0x5F, 0x32, 0x2F, 0x42, 
  0x69, 0x61, 0x73, 0x41, 0x64, 0x64, 0x2F, 0x52, 0x65, 0x61, 0x64, 0x56, 
  0x61, 0x72, 0x69, 0x61, 0x62, 0x6C, 0x65, 0x4F, 0x70, 0x00, 0x00, 0x00, 
  0x01, 0x00, 0x00, 0x00, 0x03, 0x00, 0x00, 0x00, 0x00, 0x00, 0x16, 0x00, 
  0x20, 0x00, 0x1C, 0x00, 0x1B, 0x00, 0x14, 0x00, 0x10, 0x00, 0x0C, 0x00, 
  0x00, 0x00, 0x00, 0x00, 0x08, 0x00, 0x07, 0x00, 0x16, 0x00, 0x00, 0x00, 
  0x00, 0x00, 0x00, 0x01, 0x18, 0x00, 0x00, 0x00, 0x2C, 0x00, 0x00, 0x00, 
  0x4C, 0x00, 0x00, 0x00, 0x01, 0x00, 0x00, 0x00, 0x00, 0x00, 0x00, 0x09, 
  0x60, 0x00, 0x00, 0x00, 0x02, 0x00, 0x00, 0x00, 0xFF, 0xFF, 0xFF, 0xFF, 
  0x32, 0x00, 0x00, 0x00, 0x0C, 0x00, 0x0C, 0x00, 0x00, 0x00, 0x00, 0x00, 
  0x08, 0x00, 0x04, 0x00, 0x0C, 0x00, 0x00, 0x00, 0x08, 0x00, 0x00, 0x00, 
  0x14, 0x00, 0x00, 0x00, 0x01, 0x00, 0x00, 0x00, 0x80, 0xFF, 0xFF, 0xFF, 
  0xFF, 0xFF, 0xFF, 0xFF, 0x00, 0x00, 0x00, 0x00, 0x01, 0x00, 0x00, 0x00, 
  0xF8, 0xC4, 0x91, 0x3D, 0x19, 0x00, 0x00, 0x00, 0x73, 0x65, 0x72, 0x76, 
  0x69, 0x6E, 0x67, 0x5F, 0x64, 0x65, 0x66, 0x61, 0x75, 0x6C, 0x74, 0x5F, 
  0x69, 0x6E, 0x70, 0x75, 0x74, 0x5F, 0x31, 0x3A, 0x30, 0x00, 0x00, 0x00, 
  0x02, 0x00, 0x00, 0x00, 0x01, 0x00, 0x00, 0x00, 0x32, 0x00, 0x00, 0x00, 
  0x02, 0x00, 0x00, 0x00, 0x24, 0x00, 0x00, 0x00, 0x04, 0x00, 0x00, 0x00, 
  0xF0, 0xFF, 0xFF, 0xFF, 0x19, 0x00, 0x00, 0x00, 0x02, 0x00, 0x00, 0x00, 
  0x00, 0x00, 0x00, 0x19, 0x0C, 0x00, 0x10, 0x00, 0x0F, 0x00, 0x00, 0x00, 
  0x08, 0x00, 0x04, 0x00, 0x0C, 0x00, 0x00, 0x00, 0x09, 0x00, 0x00, 0x00, 
  0x04, 0x00, 0x00, 0x00, 0x00, 0x00, 0x00, 0x09, };

const unsigned int activity_mlp_len = 10496;
